#include "MNIST_data.h"

// We need to keep the data array aligned on some architectures.
#ifdef __has_attribute
#define HAVE_ATTRIBUTE(x) __has_attribute(x)
#else
#define HAVE_ATTRIBUTE(x) 0
#endif
#if HAVE_ATTRIBUTE(aligned) || (defined(__GNUC__) && !defined(__clang__))
#define DATA_ALIGN_ATTRIBUTE __attribute__((aligned(4)))
#define DATA_ALIGN_ATTRIBUTE __attribute__((aligned(4)))
#else
#define DATA_ALIGN_ATTRIBUTE
#endif

const unsigned char MNIST_tflite[] DATA_ALIGN_ATTRIBUTE = {
    0x1c, 0x00, 0x00, 0x00, 0x54, 0x46, 0x4c, 0x33, 0x14, 0x00, 0x20, 0x00,
    0x04, 0x00, 0x08, 0x00, 0x0c, 0x00, 0x10, 0x00, 0x14, 0x00, 0x00, 0x00,
    0x18, 0x00, 0x1c, 0x00, 0x14, 0x00, 0x00, 0x00, 0x03, 0x00, 0x00, 0x00,
    0x18, 0x00, 0x00, 0x00, 0x34, 0x00, 0x00, 0x00, 0x0c, 0x01, 0x00, 0x00,
    0x34, 0x00, 0x00, 0x00, 0xb4, 0x00, 0x00, 0x00, 0xac, 0x00, 0x00, 0x00,
    0x07, 0x00, 0x00, 0x00, 0xf4, 0x0c, 0x00, 0x00, 0xdc, 0x0b, 0x00, 0x00,
    0xb4, 0x09, 0x00, 0x00, 0xa4, 0x05, 0x00, 0x00, 0xd0, 0x04, 0x00, 0x00,
    0x90, 0x02, 0x00, 0x00, 0x08, 0x02, 0x00, 0x00, 0x01, 0x00, 0x00, 0x00,
    0xfc, 0x00, 0x00, 0x00, 0x1f, 0x00, 0x00, 0x00, 0xf4, 0x24, 0x00, 0x00,
    0xf0, 0x24, 0x00, 0x00, 0x24, 0x24, 0x00, 0x00, 0xfc, 0x22, 0x00, 0x00,
    0xdc, 0x21, 0x00, 0x00, 0xcc, 0x1e, 0x00, 0x00, 0x94, 0x1d, 0x00, 0x00,
    0x84, 0x1a, 0x00, 0x00, 0x4c, 0x19, 0x00, 0x00, 0x3c, 0x16, 0x00, 0x00,
    0x04, 0x15, 0x00, 0x00, 0x94, 0x10, 0x00, 0x00, 0xf4, 0x0f, 0x00, 0x00,
    0x40, 0x0f, 0x00, 0x00, 0x98, 0x0e, 0x00, 0x00, 0xd8, 0x0d, 0x00, 0x00,
    0x28, 0x0d, 0x00, 0x00, 0xb0, 0x24, 0x00, 0x00, 0xac, 0x24, 0x00, 0x00,
    0xa8, 0x24, 0x00, 0x00, 0xa4, 0x24, 0x00, 0x00, 0xa0, 0x24, 0x00, 0x00,
    0x9c, 0x24, 0x00, 0x00, 0x98, 0x24, 0x00, 0x00, 0x94, 0x24, 0x00, 0x00,
    0x90, 0x24, 0x00, 0x00, 0x8c, 0x24, 0x00, 0x00, 0x88, 0x24, 0x00, 0x00,
    0x84, 0x24, 0x00, 0x00, 0x80, 0x24, 0x00, 0x00, 0x3c, 0x00, 0x00, 0x00,
    0x00, 0x00, 0x00, 0x00, 0x01, 0x00, 0x00, 0x00, 0x0c, 0x00, 0x00, 0x00,
    0x08, 0x00, 0x0c, 0x00, 0x04, 0x00, 0x08, 0x00, 0x08, 0x00, 0x00, 0x00,
    0x08, 0x00, 0x00, 0x00, 0x1e, 0x00, 0x00, 0x00, 0x13, 0x00, 0x00, 0x00,
    0x6d, 0x69, 0x6e, 0x5f, 0x72, 0x75, 0x6e, 0x74, 0x69, 0x6d, 0x65, 0x5f,
    0x76, 0x65, 0x72, 0x73, 0x69, 0x6f, 0x6e, 0x00, 0x8e, 0xdc, 0xff, 0xff,
    0x04, 0x00, 0x00, 0x00, 0x10, 0x00, 0x00, 0x00, 0x31, 0x2e, 0x31, 0x34,
    0x2e, 0x30, 0x00, 0x00, 0x00, 0x00, 0x00, 0x00, 0x00, 0x00, 0x00, 0x00,
    0x0f, 0x00, 0x00, 0x00, 0x4d, 0x4c, 0x49, 0x52, 0x20, 0x43, 0x6f, 0x6e,
    0x76, 0x65, 0x72, 0x74, 0x65, 0x64, 0x2e, 0x00, 0x00, 0x00, 0x0e, 0x00,
    0x18, 0x00, 0x04, 0x00, 0x08, 0x00, 0x0c, 0x00, 0x10, 0x00, 0x14, 0x00,
    0x0e, 0x00, 0x00, 0x00, 0x14, 0x00, 0x00, 0x00, 0x88, 0x00, 0x00, 0x00,
    0x8c, 0x00, 0x00, 0x00, 0x90, 0x00, 0x00, 0x00, 0xc4, 0x00, 0x00, 0x00,
    0x1d, 0x00, 0x00, 0x00, 0x90, 0x23, 0x00, 0x00, 0x3c, 0x23, 0x00, 0x00,
    0x44, 0x22, 0x00, 0x00, 0xfc, 0x20, 0x00, 0x00, 0x0c, 0x20, 0x00, 0x00,
    0xb4, 0x1c, 0x00, 0x00, 0xc4, 0x1b, 0x00, 0x00, 0x6c, 0x18, 0x00, 0x00,
    0x7c, 0x17, 0x00, 0x00, 0x24, 0x14, 0x00, 0x00, 0x94, 0x13, 0x00, 0x00,
    0x14, 0x0f, 0x00, 0x00, 0x80, 0x0e, 0x00, 0x00, 0xb8, 0x0d, 0x00, 0x00,
    0x28, 0x0d, 0x00, 0x00, 0x50, 0x0c, 0x00, 0x00, 0xa0, 0x0b, 0x00, 0x00,
    0x74, 0x0a, 0x00, 0x00, 0x14, 0x09, 0x00, 0x00, 0x48, 0x08, 0x00, 0x00,
    0xe4, 0x06, 0x00, 0x00, 0xb0, 0x05, 0x00, 0x00, 0xe0, 0x04, 0x00, 0x00,
    0x2c, 0x04, 0x00, 0x00, 0x58, 0x03, 0x00, 0x00, 0x6c, 0x02, 0x00, 0x00,
    0xac, 0x01, 0x00, 0x00, 0x10, 0x01, 0x00, 0x00, 0x88, 0x00, 0x00, 0x00,
    0x01, 0x00, 0x00, 0x00, 0x00, 0x00, 0x00, 0x00, 0x01, 0x00, 0x00, 0x00,
    0x1c, 0x00, 0x00, 0x00, 0x0d, 0x00, 0x00, 0x00, 0x0c, 0x0b, 0x00, 0x00,
    0xd0, 0x09, 0x00, 0x00, 0x8c, 0x08, 0x00, 0x00, 0xa0, 0x07, 0x00, 0x00,
    0x5c, 0x06, 0x00, 0x00, 0x28, 0x05, 0x00, 0x00, 0x58, 0x04, 0x00, 0x00,
    0xb0, 0x03, 0x00, 0x00, 0xc0, 0x02, 0x00, 0x00, 0xec, 0x01, 0x00, 0x00,
    0x30, 0x01, 0x00, 0x00, 0x88, 0x00, 0x00, 0x00, 0x10, 0x00, 0x00, 0x00,
    0x04, 0x00, 0x00, 0x00, 0x6d, 0x61, 0x69, 0x6e, 0x00, 0x00, 0x00, 0x00,
    0x7e, 0xfc, 0xff, 0xff, 0x06, 0x00, 0x00, 0x00, 0x10, 0x00, 0x00, 0x00,
    0x04, 0x00, 0x00, 0x00, 0x01, 0x00, 0x00, 0x00, 0x1c, 0x00, 0x00, 0x00,
    0x01, 0x00, 0x00, 0x00, 0x1b, 0x00, 0x00, 0x00, 0x38, 0xf5, 0xff, 0xff,
    0x06, 0x00, 0x00, 0x00, 0x00, 0x00, 0x00, 0x06, 0x02, 0x00, 0x00, 0x00,
    0x7c, 0xdd, 0xff, 0xff, 0x14, 0x00, 0x00, 0x00, 0x1d, 0x00, 0x00, 0x00,
    0x24, 0x00, 0x00, 0x00, 0x30, 0x00, 0x00, 0x00, 0x10, 0x00, 0x00, 0x00,
    0x02, 0x00, 0x00, 0x00, 0x01, 0x00, 0x00, 0x00, 0x0a, 0x00, 0x00, 0x00,
    0x02, 0x00, 0x00, 0x00, 0xff, 0xff, 0xff, 0xff, 0x0a, 0x00, 0x00, 0x00,
    0x08, 0x00, 0x00, 0x00, 0x49, 0x64, 0x65, 0x6e, 0x74, 0x69, 0x74, 0x79,
    0x00, 0x00, 0x00, 0x00, 0x58, 0xdd, 0xff, 0xff, 0xee, 0xf6, 0xff, 0xff,
    0x00, 0x00, 0x00, 0x09, 0x05, 0x00, 0x00, 0x00, 0x1c, 0x00, 0x00, 0x00,
    0x10, 0x00, 0x00, 0x00, 0x04, 0x00, 0x00, 0x00, 0x3e, 0xde, 0xff, 0xff,
    0x00, 0x00, 0x80, 0x3f, 0x01, 0x00, 0x00, 0x00, 0x1b, 0x00, 0x00, 0x00,
    0x01, 0x00, 0x00, 0x00, 0x1a, 0x00, 0x00, 0x00, 0xbc, 0xf5, 0xff, 0xff,
    0x19, 0x00, 0x00, 0x00, 0x00, 0x00, 0x00, 0x19, 0x02, 0x00, 0x00, 0x00,
    0xb0, 0xf5, 0xff, 0xff, 0x00, 0x00, 0x00, 0x09, 0x14, 0x00, 0x00, 0x00,
    0x1c, 0x00, 0x00, 0x00, 0x24, 0x00, 0x00, 0x00, 0x30, 0x00, 0x00, 0x00,
    0x10, 0x00, 0x00, 0x00, 0x02, 0x00, 0x00, 0x00, 0x01, 0x00, 0x00, 0x00,
    0x0a, 0x00, 0x00, 0x00, 0x02, 0x00, 0x00, 0x00, 0xff, 0xff, 0xff, 0xff,
    0x0a, 0x00, 0x00, 0x00, 0x09, 0x00, 0x00, 0x00, 0x49, 0x64, 0x65, 0x6e,
    0x74, 0x69, 0x74, 0x79, 0x31, 0x00, 0x00, 0x00, 0x30, 0xdf, 0xff, 0xff,
    0x08, 0x00, 0x00, 0x00, 0x0c, 0x00, 0x00, 0x00, 0x01, 0x00, 0x00, 0x00,
    0x00, 0x00, 0x80, 0x3b, 0x01, 0x00, 0x00, 0x00, 0x80, 0xff, 0xff, 0xff,
    0xff, 0xff, 0xff, 0xff, 0x92, 0xf7, 0xff, 0xff, 0x00, 0x00, 0x00, 0x08,
    0x04, 0x00, 0x00, 0x00, 0x18, 0x00, 0x00, 0x00, 0x0c, 0x00, 0x00, 0x00,
    0x04, 0x00, 0x00, 0x00, 0x18, 0xde, 0xff, 0xff, 0x01, 0x00, 0x00, 0x00,
    0x1a, 0x00, 0x00, 0x00, 0x03, 0x00, 0x00, 0x00, 0x19, 0x00, 0x00, 0x00,
    0x0e, 0x00, 0x00, 0x00, 0x0f, 0x00, 0x00, 0x00, 0x48, 0xf6, 0xff, 0xff,
    0x00, 0x00, 0x00, 0x09, 0x14, 0x00, 0x00, 0x00, 0x1b, 0x00, 0x00, 0x00,
    0x24, 0x00, 0x00, 0x00, 0x50, 0x00, 0x00, 0x00, 0x10, 0x00, 0x00, 0x00,
    0x02, 0x00, 0x00, 0x00, 0x01, 0x00, 0x00, 0x00, 0x0a, 0x00, 0x00, 0x00,
    0x02, 0x00, 0x00, 0x00, 0xff, 0xff, 0xff, 0xff, 0x0a, 0x00, 0x00, 0x00,
    0x2a, 0x00, 0x00, 0x00, 0x6d, 0x6f, 0x64, 0x65, 0x6c, 0x2f, 0x64, 0x65,
    0x6e, 0x73, 0x65, 0x5f, 0x32, 0x2f, 0x4d, 0x61, 0x74, 0x4d, 0x75, 0x6c,
    0x3b, 0x6d, 0x6f, 0x64, 0x65, 0x6c, 0x2f, 0x64, 0x65, 0x6e, 0x73, 0x65,
    0x5f, 0x32, 0x2f, 0x42, 0x69, 0x61, 0x73, 0x41, 0x64, 0x64, 0x00, 0x00,
    0xe8, 0xdf, 0xff, 0xff, 0x08, 0x00, 0x00, 0x00, 0x0c, 0x00, 0x00, 0x00,
    0x01, 0x00, 0x00, 0x00, 0xc4, 0x27, 0x62, 0x3e, 0x01, 0x00, 0x00, 0x00,
    0x1f, 0x00, 0x00, 0x00, 0x00, 0x00, 0x00, 0x00, 0x4a, 0xf8, 0xff, 0xff,
    0x00, 0x00, 0x00, 0x08, 0x04, 0x00, 0x00, 0x00, 0x1c, 0x00, 0x00, 0x00,
    0x10, 0x00, 0x00, 0x00, 0x04, 0x00, 0x00, 0x00, 0x2e, 0xff, 0xff, 0xff,
    0x00, 0x00, 0x00, 0x01, 0x01, 0x00, 0x00, 0x00, 0x19, 0x00, 0x00, 0x00,
    0x03, 0x00, 0x00, 0x00, 0x18, 0x00, 0x00, 0x00, 0x0c, 0x00, 0x00, 0x00,
    0x0d, 0x00, 0x00, 0x00, 0x04, 0xf7, 0xff, 0xff, 0x00, 0x00, 0x00, 0x09,
    0x14, 0x00, 0x00, 0x00, 0x1a, 0x00, 0x00, 0x00, 0x24, 0x00, 0x00, 0x00,
    0x64, 0x00, 0x00, 0x00, 0x10, 0x00, 0x00, 0x00, 0x02, 0x00, 0x00, 0x00,
    0x01, 0x00, 0x00, 0x00, 0x08, 0x00, 0x00, 0x00, 0x02, 0x00, 0x00, 0x00,
    0xff, 0xff, 0xff, 0xff, 0x08, 0x00, 0x00, 0x00, 0x3d, 0x00, 0x00, 0x00,
    0x6d, 0x6f, 0x64, 0x65, 0x6c, 0x2f, 0x64, 0x65, 0x6e, 0x73, 0x65, 0x5f,
    0x31, 0x2f, 0x4d, 0x61, 0x74, 0x4d, 0x75, 0x6c, 0x3b, 0x6d, 0x6f, 0x64,
    0x65, 0x6c, 0x2f, 0x64, 0x65, 0x6e, 0x73, 0x65, 0x5f, 0x31, 0x2f, 0x42,
    0x69, 0x61, 0x73, 0x41, 0x64, 0x64, 0x3b, 0x6d, 0x6f, 0x64, 0x65, 0x6c,
    0x2f, 0x72, 0x65, 0x5f, 0x6c, 0x75, 0x5f, 0x31, 0x2f, 0x52, 0x65, 0x6c,
    0x75, 0x00, 0x00, 0x00, 0xb8, 0xe0, 0xff, 0xff, 0x08, 0x00, 0x00, 0x00,
    0x0c, 0x00, 0x00, 0x00, 0x01, 0x00, 0x00, 0x00, 0xf9, 0x13, 0x20, 0x3e,
    0x01, 0x00, 0x00, 0x00, 0x80, 0xff, 0xff, 0xff, 0xff, 0xff, 0xff, 0xff,
    0x42, 0xfb, 0xff, 0xff, 0x00, 0x00, 0x00, 0x08, 0x04, 0x00, 0x00, 0x00,
    0x24, 0x00, 0x00, 0x00, 0x18, 0x00, 0x00, 0x00, 0x0c, 0x00, 0x00, 0x00,
    0x00, 0x00, 0x06, 0x00, 0x08, 0x00, 0x07, 0x00, 0x06, 0x00, 0x00, 0x00,
    0x00, 0x00, 0x00, 0x01, 0x01, 0x00, 0x00, 0x00, 0x18, 0x00, 0x00, 0x00,
    0x03, 0x00, 0x00, 0x00, 0x17, 0x00, 0x00, 0x00, 0x0a, 0x00, 0x00, 0x00,
    0x0b, 0x00, 0x00, 0x00, 0xf8, 0xf7, 0xff, 0xff, 0x09, 0x00, 0x00, 0x00,
    0x00, 0x00, 0x00, 0x09, 0x04, 0x00, 0x00, 0x00, 0xec, 0xf7, 0xff, 0xff,
    0x00, 0x00, 0x00, 0x09, 0x14, 0x00, 0x00, 0x00, 0x19, 0x00, 0x00, 0x00,
    0x24, 0x00, 0x00, 0x00, 0x5c, 0x00, 0x00, 0x00, 0x10, 0x00, 0x00, 0x00,
    0x02, 0x00, 0x00, 0x00, 0x01, 0x00, 0x00, 0x00, 0x08, 0x00, 0x00, 0x00,
    0x02, 0x00, 0x00, 0x00, 0xff, 0xff, 0xff, 0xff, 0x08, 0x00, 0x00, 0x00,
    0x37, 0x00, 0x00, 0x00, 0x6d, 0x6f, 0x64, 0x65, 0x6c, 0x2f, 0x64, 0x65,
    0x6e, 0x73, 0x65, 0x2f, 0x4d, 0x61, 0x74, 0x4d, 0x75, 0x6c, 0x3b, 0x6d,
    0x6f, 0x64, 0x65, 0x6c, 0x2f, 0x64, 0x65, 0x6e, 0x73, 0x65, 0x2f, 0x42,
    0x69, 0x61, 0x73, 0x41, 0x64, 0x64, 0x3b, 0x6d, 0x6f, 0x64, 0x65, 0x6c,
    0x2f, 0x72, 0x65, 0x5f, 0x6c, 0x75, 0x2f, 0x52, 0x65, 0x6c, 0x75, 0x00,
    0x98, 0xe1, 0xff, 0xff, 0x08, 0x00, 0x00, 0x00, 0x0c, 0x00, 0x00, 0x00,
    0x01, 0x00, 0x00, 0x00, 0x55, 0x1c, 0x8f, 0x3e, 0x01, 0x00, 0x00, 0x00,
    0x80, 0xff, 0xff, 0xff, 0xff, 0xff, 0xff, 0xff, 0x00, 0x00, 0x0a, 0x00,
    0x10, 0x00, 0x04, 0x00, 0x08, 0x00, 0x0c, 0x00, 0x0a, 0x00, 0x00, 0x00,
    0x03, 0x00, 0x00, 0x00, 0x10, 0x00, 0x00, 0x00, 0x04, 0x00, 0x00, 0x00,
    0x01, 0x00, 0x00, 0x00, 0x17, 0x00, 0x00, 0x00, 0x02, 0x00, 0x00, 0x00,
    0x16, 0x00, 0x00, 0x00, 0x01, 0x00, 0x00, 0x00, 0xc8, 0xf8, 0xff, 0xff,
    0x16, 0x00, 0x00, 0x00, 0x00, 0x00, 0x00, 0x16, 0x01, 0x00, 0x00, 0x00,
    0xbc, 0xf8, 0xff, 0xff, 0x00, 0x00, 0x00, 0x09, 0x14, 0x00, 0x00, 0x00,
    0x18, 0x00, 0x00, 0x00, 0x24, 0x00, 0x00, 0x00, 0x3c, 0x00, 0x00, 0x00,
    0x10, 0x00, 0x00, 0x00, 0x02, 0x00, 0x00, 0x00, 0x01, 0x00, 0x00, 0x00,
    0x80, 0x00, 0x00, 0x00, 0x02, 0x00, 0x00, 0x00, 0xff, 0xff, 0xff, 0xff,
    0x80, 0x00, 0x00, 0x00, 0x15, 0x00, 0x00, 0x00, 0x6d, 0x6f, 0x64, 0x65,
    0x6c, 0x2f, 0x66, 0x6c, 0x61, 0x74, 0x74, 0x65, 0x6e, 0x2f, 0x52, 0x65,
    0x73, 0x68, 0x61, 0x70, 0x65, 0x00, 0x00, 0x00, 0x48, 0xe2, 0xff, 0xff,
    0x08, 0x00, 0x00, 0x00, 0x0c, 0x00, 0x00, 0x00, 0x01, 0x00, 0x00, 0x00,
    0x97, 0x85, 0xe3, 0x3d, 0x01, 0x00, 0x00, 0x00, 0x80, 0xff, 0xff, 0xff,
    0xff, 0xff, 0xff, 0xff, 0xaa, 0xfa, 0xff, 0xff, 0x00, 0x00, 0x00, 0x05,
    0x02, 0x00, 0x00, 0x00, 0x2c, 0x00, 0x00, 0x00, 0x20, 0x00, 0x00, 0x00,
    0x04, 0x00, 0x00, 0x00, 0xc2, 0xfc, 0xff, 0xff, 0x02, 0x00, 0x00, 0x00,
    0x02, 0x00, 0x00, 0x00, 0x02, 0x00, 0x00, 0x00, 0x02, 0x00, 0x00, 0x00,
    0x00, 0x00, 0x00, 0x01, 0x01, 0x00, 0x00, 0x00, 0x16, 0x00, 0x00, 0x00,
    0x01, 0x00, 0x00, 0x00, 0x15, 0x00, 0x00, 0x00, 0x6c, 0xf9, 0xff, 0xff,
    0x00, 0x00, 0x00, 0x09, 0x14, 0x00, 0x00, 0x00, 0x17, 0x00, 0x00, 0x00,
    0x34, 0x00, 0x00, 0x00, 0x54, 0x00, 0x00, 0x00, 0x18, 0x00, 0x00, 0x00,
    0x04, 0x00, 0x00, 0x00, 0x01, 0x00, 0x00, 0x00, 0x04, 0x00, 0x00, 0x00,
    0x04, 0x00, 0x00, 0x00, 0x08, 0x00, 0x00, 0x00, 0x04, 0x00, 0x00, 0x00,
    0xff, 0xff, 0xff, 0xff, 0x04, 0x00, 0x00, 0x00, 0x04, 0x00, 0x00, 0x00,
    0x08, 0x00, 0x00, 0x00, 0x1d, 0x00, 0x00, 0x00, 0x6d, 0x6f, 0x64, 0x65,
    0x6c, 0x2f, 0x6d, 0x61, 0x78, 0x5f, 0x70, 0x6f, 0x6f, 0x6c, 0x69, 0x6e,
    0x67, 0x32, 0x64, 0x5f, 0x31, 0x2f, 0x4d, 0x61, 0x78, 0x50, 0x6f, 0x6f,
    0x6c, 0x00, 0x00, 0x00, 0x10, 0xe3, 0xff, 0xff, 0x08, 0x00, 0x00, 0x00,
    0x0c, 0x00, 0x00, 0x00, 0x01, 0x00, 0x00, 0x00, 0x97, 0x85, 0xe3, 0x3d,
    0x01, 0x00, 0x00, 0x00, 0x80, 0xff, 0xff, 0xff, 0xff, 0xff, 0xff, 0xff,
    0x00, 0x00, 0x00, 0x00, 0x76, 0xfb, 0xff, 0xff, 0x00, 0x00, 0x00, 0x01,
    0x01, 0x00, 0x00, 0x00, 0x24, 0x00, 0x00, 0x00, 0x18, 0x00, 0x00, 0x00,
    0x04, 0x00, 0x00, 0x00, 0x68, 0xfb, 0xff, 0xff, 0x01, 0x00, 0x00, 0x00,
    0x01, 0x00, 0x00, 0x00, 0x00, 0x00, 0x01, 0x01, 0x01, 0x00, 0x00, 0x00,
    0x15, 0x00, 0x00, 0x00, 0x03, 0x00, 0x00, 0x00, 0x14, 0x00, 0x00, 0x00,
    0x08, 0x00, 0x00, 0x00, 0x09, 0x00, 0x00, 0x00, 0x38, 0xfa, 0xff, 0xff,
    0x00, 0x00, 0x00, 0x09, 0x14, 0x00, 0x00, 0x00, 0x16, 0x00, 0x00, 0x00,
    0x34, 0x00, 0x00, 0x00, 0xb8, 0x00, 0x00, 0x00, 0x18, 0x00, 0x00, 0x00,
    0x04, 0x00, 0x00, 0x00, 0x01, 0x00, 0x00, 0x00, 0x08, 0x00, 0x00, 0x00,
    0x08, 0x00, 0x00, 0x00, 0x08, 0x00, 0x00, 0x00, 0x04, 0x00, 0x00, 0x00,
    0xff, 0xff, 0xff, 0xff, 0x08, 0x00, 0x00, 0x00, 0x08, 0x00, 0x00, 0x00,
    0x08, 0x00, 0x00, 0x00, 0x83, 0x00, 0x00, 0x00, 0x6d, 0x6f, 0x64, 0x65,
    0x6c, 0x2f, 0x63, 0x6f, 0x6e, 0x76, 0x32, 0x64, 0x5f, 0x33, 0x2f, 0x52,
    0x65, 0x6c, 0x75, 0x3b, 0x6d, 0x6f, 0x64, 0x65, 0x6c, 0x2f, 0x63, 0x6f,
    0x6e, 0x76, 0x32, 0x64, 0x5f, 0x33, 0x2f, 0x42, 0x69, 0x61, 0x73, 0x41,
    0x64, 0x64, 0x3b, 0x6d, 0x6f, 0x64, 0x65, 0x6c, 0x2f, 0x63, 0x6f, 0x6e,
    0x76, 0x32, 0x64, 0x2f, 0x43, 0x6f, 0x6e, 0x76, 0x32, 0x44, 0x3b, 0x6d,
    0x6f, 0x64, 0x65, 0x6c, 0x2f, 0x63, 0x6f, 0x6e, 0x76, 0x32, 0x64, 0x5f,
    0x33, 0x2f, 0x43, 0x6f, 0x6e, 0x76, 0x32, 0x44, 0x3b, 0x6d, 0x6f, 0x64,
    0x65, 0x6c, 0x2f, 0x63, 0x6f, 0x6e, 0x76, 0x32, 0x64, 0x5f, 0x33, 0x2f,
    0x42, 0x69, 0x61, 0x73, 0x41, 0x64, 0x64, 0x2f, 0x52, 0x65, 0x61, 0x64,
    0x56, 0x61, 0x72, 0x69, 0x61, 0x62, 0x6c, 0x65, 0x4f, 0x70, 0x2f, 0x72,
    0x65, 0x73, 0x6f, 0x75, 0x72, 0x63, 0x65, 0x00, 0x40, 0xe4, 0xff, 0xff,
    0x08, 0x00, 0x00, 0x00, 0x0c, 0x00, 0x00, 0x00, 0x01, 0x00, 0x00, 0x00,
    0x97, 0x85, 0xe3, 0x3d, 0x01, 0x00, 0x00, 0x00, 0x80, 0xff, 0xff, 0xff,
    0xff, 0xff, 0xff, 0xff, 0x00, 0x00, 0x00, 0x00, 0xa6, 0xfc, 0xff, 0xff,
    0x00, 0x00, 0x00, 0x01, 0x01, 0x00, 0x00, 0x00, 0x24, 0x00, 0x00, 0x00,
    0x18, 0x00, 0x00, 0x00, 0x04, 0x00, 0x00, 0x00, 0x98, 0xfc, 0xff, 0xff,
    0x01, 0x00, 0x00, 0x00, 0x01, 0x00, 0x00, 0x00, 0x00, 0x00, 0x01, 0x01,
    0x01, 0x00, 0x00, 0x00, 0x14, 0x00, 0x00, 0x00, 0x03, 0x00, 0x00, 0x00,
    0x13, 0x00, 0x00, 0x00, 0x06, 0x00, 0x00, 0x00, 0x07, 0x00, 0x00, 0x00,
    0x68, 0xfb, 0xff, 0xff, 0x00, 0x00, 0x00, 0x09, 0x14, 0x00, 0x00, 0x00,
    0x15, 0x00, 0x00, 0x00, 0x34, 0x00, 0x00, 0x00, 0xb8, 0x00, 0x00, 0x00,
    0x18, 0x00, 0x00, 0x00, 0x04, 0x00, 0x00, 0x00, 0x01, 0x00, 0x00, 0x00,
    0x0a, 0x00, 0x00, 0x00, 0x0a, 0x00, 0x00, 0x00, 0x08, 0x00, 0x00, 0x00,
    0x04, 0x00, 0x00, 0x00, 0xff, 0xff, 0xff, 0xff, 0x0a, 0x00, 0x00, 0x00,
    0x0a, 0x00, 0x00, 0x00, 0x08, 0x00, 0x00, 0x00, 0x83, 0x00, 0x00, 0x00,
    0x6d, 0x6f, 0x64, 0x65, 0x6c, 0x2f, 0x63, 0x6f, 0x6e, 0x76, 0x32, 0x64,
    0x5f, 0x32, 0x2f, 0x52, 0x65, 0x6c, 0x75, 0x3b, 0x6d, 0x6f, 0x64, 0x65,
    0x6c, 0x2f, 0x63, 0x6f, 0x6e, 0x76, 0x32, 0x64, 0x5f, 0x32, 0x2f, 0x42,
    0x69, 0x61, 0x73, 0x41, 0x64, 0x64, 0x3b, 0x6d, 0x6f, 0x64, 0x65, 0x6c,
    0x2f, 0x63, 0x6f, 0x6e, 0x76, 0x32, 0x64, 0x2f, 0x43, 0x6f, 0x6e, 0x76,
    0x32, 0x44, 0x3b, 0x6d, 0x6f, 0x64, 0x65, 0x6c, 0x2f, 0x63, 0x6f, 0x6e,
    0x76, 0x32, 0x64, 0x5f, 0x32, 0x2f, 0x43, 0x6f, 0x6e, 0x76, 0x32, 0x44,
    0x3b, 0x6d, 0x6f, 0x64, 0x65, 0x6c, 0x2f, 0x63, 0x6f, 0x6e, 0x76, 0x32,
    0x64, 0x5f, 0x32, 0x2f, 0x42, 0x69, 0x61, 0x73, 0x41, 0x64, 0x64, 0x2f,
    0x52, 0x65, 0x61, 0x64, 0x56, 0x61, 0x72, 0x69, 0x61, 0x62, 0x6c, 0x65,
    0x4f, 0x70, 0x2f, 0x72, 0x65, 0x73, 0x6f, 0x75, 0x72, 0x63, 0x65, 0x00,
    0x70, 0xe5, 0xff, 0xff, 0x08, 0x00, 0x00, 0x00, 0x0c, 0x00, 0x00, 0x00,
    0x01, 0x00, 0x00, 0x00, 0x9a, 0x26, 0x7c, 0x3d, 0x01, 0x00, 0x00, 0x00,
    0x80, 0xff, 0xff, 0xff, 0xff, 0xff, 0xff, 0xff, 0x00, 0x00, 0x00, 0x00,
    0x00, 0x00, 0x0e, 0x00, 0x1a, 0x00, 0x08, 0x00, 0x0c, 0x00, 0x10, 0x00,
    0x07, 0x00, 0x14, 0x00, 0x0e, 0x00, 0x00, 0x00, 0x00, 0x00, 0x00, 0x05,
    0x02, 0x00, 0x00, 0x00, 0x3c, 0x00, 0x00, 0x00, 0x30, 0x00, 0x00, 0x00,
    0x14, 0x00, 0x00, 0x00, 0x00, 0x00, 0x0e, 0x00, 0x18, 0x00, 0x17, 0x00,
    0x10, 0x00, 0x0c, 0x00, 0x08, 0x00, 0x04, 0x00, 0x0e, 0x00, 0x00, 0x00,
    0x02, 0x00, 0x00, 0x00, 0x02, 0x00, 0x00, 0x00, 0x02, 0x00, 0x00, 0x00,
    0x02, 0x00, 0x00, 0x00, 0x00, 0x00, 0x00, 0x01, 0x01, 0x00, 0x00, 0x00,
    0x13, 0x00, 0x00, 0x00, 0x01, 0x00, 0x00, 0x00, 0x12, 0x00, 0x00, 0x00,
    0xd4, 0xfc, 0xff, 0xff, 0x11, 0x00, 0x00, 0x00, 0x00, 0x00, 0x00, 0x11,
    0x02, 0x00, 0x00, 0x00, 0xc8, 0xfc, 0xff, 0xff, 0x00, 0x00, 0x00, 0x09,
    0x14, 0x00, 0x00, 0x00, 0x14, 0x00, 0x00, 0x00, 0x34, 0x00, 0x00, 0x00,
    0x50, 0x00, 0x00, 0x00, 0x18, 0x00, 0x00, 0x00, 0x04, 0x00, 0x00, 0x00,
    0x01, 0x00, 0x00, 0x00, 0x0c, 0x00, 0x00, 0x00, 0x0c, 0x00, 0x00, 0x00,
    0x08, 0x00, 0x00, 0x00, 0x04, 0x00, 0x00, 0x00, 0xff, 0xff, 0xff, 0xff,
    0x0c, 0x00, 0x00, 0x00, 0x0c, 0x00, 0x00, 0x00, 0x08, 0x00, 0x00, 0x00,
    0x1b, 0x00, 0x00, 0x00, 0x6d, 0x6f, 0x64, 0x65, 0x6c, 0x2f, 0x6d, 0x61,
    0x78, 0x5f, 0x70, 0x6f, 0x6f, 0x6c, 0x69, 0x6e, 0x67, 0x32, 0x64, 0x2f,
    0x4d, 0x61, 0x78, 0x50, 0x6f, 0x6f, 0x6c, 0x00, 0x68, 0xe6, 0xff, 0xff,
    0x08, 0x00, 0x00, 0x00, 0x0c, 0x00, 0x00, 0x00, 0x01, 0x00, 0x00, 0x00,
    0x33, 0xfe, 0xe2, 0x3c, 0x01, 0x00, 0x00, 0x00, 0x80, 0xff, 0xff, 0xff,
    0xff, 0xff, 0xff, 0xff, 0x00, 0x00, 0x00, 0x00, 0xce, 0xfe, 0xff, 0xff,
    0x00, 0x00, 0x00, 0x01, 0x01, 0x00, 0x00, 0x00, 0x24, 0x00, 0x00, 0x00,
    0x18, 0x00, 0x00, 0x00, 0x04, 0x00, 0x00, 0x00, 0xc0, 0xfe, 0xff, 0xff,
    0x01, 0x00, 0x00, 0x00, 0x01, 0x00, 0x00, 0x00, 0x00, 0x00, 0x01, 0x01,
    0x01, 0x00, 0x00, 0x00, 0x12, 0x00, 0x00, 0x00, 0x03, 0x00, 0x00, 0x00,
    0x11, 0x00, 0x00, 0x00, 0x04, 0x00, 0x00, 0x00, 0x05, 0x00, 0x00, 0x00,
    0x90, 0xfd, 0xff, 0xff, 0x00, 0x00, 0x00, 0x09, 0x14, 0x00, 0x00, 0x00,
    0x13, 0x00, 0x00, 0x00, 0x34, 0x00, 0x00, 0x00, 0xb8, 0x00, 0x00, 0x00,
    0x18, 0x00, 0x00, 0x00, 0x04, 0x00, 0x00, 0x00, 0x01, 0x00, 0x00, 0x00,
    0x18, 0x00, 0x00, 0x00, 0x18, 0x00, 0x00, 0x00, 0x08, 0x00, 0x00, 0x00,
    0x04, 0x00, 0x00, 0x00, 0xff, 0xff, 0xff, 0xff, 0x18, 0x00, 0x00, 0x00,
    0x18, 0x00, 0x00, 0x00, 0x08, 0x00, 0x00, 0x00, 0x83, 0x00, 0x00, 0x00,
    0x6d, 0x6f, 0x64, 0x65, 0x6c, 0x2f, 0x63, 0x6f, 0x6e, 0x76, 0x32, 0x64,
    0x5f, 0x31, 0x2f, 0x52, 0x65, 0x6c, 0x75, 0x3b, 0x6d, 0x6f, 0x64, 0x65,
    0x6c, 0x2f, 0x63, 0x6f, 0x6e, 0x76, 0x32, 0x64, 0x5f, 0x31, 0x2f, 0x42,
    0x69, 0x61, 0x73, 0x41, 0x64, 0x64, 0x3b, 0x6d, 0x6f, 0x64, 0x65, 0x6c,
    0x2f, 0x63, 0x6f, 0x6e, 0x76, 0x32, 0x64, 0x2f, 0x43, 0x6f, 0x6e, 0x76,
    0x32, 0x44, 0x3b, 0x6d, 0x6f, 0x64, 0x65, 0x6c, 0x2f, 0x63, 0x6f, 0x6e,
    0x76, 0x32, 0x64, 0x5f, 0x31, 0x2f, 0x43, 0x6f, 0x6e, 0x76, 0x32, 0x44,
    0x3b, 0x6d, 0x6f, 0x64, 0x65, 0x6c, 0x2f, 0x63, 0x6f, 0x6e, 0x76, 0x32,
    0x64, 0x5f, 0x31, 0x2f, 0x42, 0x69, 0x61, 0x73, 0x41, 0x64, 0x64, 0x2f,
    0x52, 0x65, 0x61, 0x64, 0x56, 0x61, 0x72, 0x69, 0x61, 0x62, 0x6c, 0x65,
    0x4f, 0x70, 0x2f, 0x72, 0x65, 0x73, 0x6f, 0x75, 0x72, 0x63, 0x65, 0x00,
    0x98, 0xe7, 0xff, 0xff, 0x08, 0x00, 0x00, 0x00, 0x0c, 0x00, 0x00, 0x00,
    0x01, 0x00, 0x00, 0x00, 0x33, 0xfe, 0xe2, 0x3c, 0x01, 0x00, 0x00, 0x00,
    0x80, 0xff, 0xff, 0xff, 0xff, 0xff, 0xff, 0xff, 0x00, 0x00, 0x00, 0x00,
    0x00, 0x00, 0x0e, 0x00, 0x18, 0x00, 0x08, 0x00, 0x0c, 0x00, 0x10, 0x00,
    0x07, 0x00, 0x14, 0x00, 0x0e, 0x00, 0x00, 0x00, 0x00, 0x00, 0x00, 0x01,
    0x01, 0x00, 0x00, 0x00, 0x30, 0x00, 0x00, 0x00, 0x24, 0x00, 0x00, 0x00,
    0x10, 0x00, 0x00, 0x00, 0x0c, 0x00, 0x10, 0x00, 0x0e, 0x00, 0x04, 0x00,
    0x08, 0x00, 0x0f, 0x00, 0x0c, 0x00, 0x00, 0x00, 0x01, 0x00, 0x00, 0x00,
    0x01, 0x00, 0x00, 0x00, 0x00, 0x00, 0x01, 0x01, 0x01, 0x00, 0x00, 0x00,
    0x11, 0x00, 0x00, 0x00, 0x03, 0x00, 0x00, 0x00, 0x10, 0x00, 0x00, 0x00,
    0x02, 0x00, 0x00, 0x00, 0x03, 0x00, 0x00, 0x00, 0xf8, 0xfe, 0xff, 0xff,
    0x03, 0x00, 0x00, 0x00, 0x00, 0x00, 0x00, 0x03, 0x03, 0x00, 0x00, 0x00,
    0xec, 0xfe, 0xff, 0xff, 0x00, 0x00, 0x00, 0x09, 0x14, 0x00, 0x00, 0x00,
    0x12, 0x00, 0x00, 0x00, 0x34, 0x00, 0x00, 0x00, 0x9c, 0x00, 0x00, 0x00,
    0x18, 0x00, 0x00, 0x00, 0x04, 0x00, 0x00, 0x00, 0x01, 0x00, 0x00, 0x00,
    0x1a, 0x00, 0x00, 0x00, 0x1a, 0x00, 0x00, 0x00, 0x08, 0x00, 0x00, 0x00,
    0x04, 0x00, 0x00, 0x00, 0xff, 0xff, 0xff, 0xff, 0x1a, 0x00, 0x00, 0x00,
    0x1a, 0x00, 0x00, 0x00, 0x08, 0x00, 0x00, 0x00, 0x67, 0x00, 0x00, 0x00,
    0x6d, 0x6f, 0x64, 0x65, 0x6c, 0x2f, 0x63, 0x6f, 0x6e, 0x76, 0x32, 0x64,
    0x2f, 0x52, 0x65, 0x6c, 0x75, 0x3b, 0x6d, 0x6f, 0x64, 0x65, 0x6c, 0x2f,
    0x63, 0x6f, 0x6e, 0x76, 0x32, 0x64, 0x2f, 0x42, 0x69, 0x61, 0x73, 0x41,
    0x64, 0x64, 0x3b, 0x6d, 0x6f, 0x64, 0x65, 0x6c, 0x2f, 0x63, 0x6f, 0x6e,
    0x76, 0x32, 0x64, 0x2f, 0x43, 0x6f, 0x6e, 0x76, 0x32, 0x44, 0x3b, 0x6d,
    0x6f, 0x64, 0x65, 0x6c, 0x2f, 0x63, 0x6f, 0x6e, 0x76, 0x32, 0x64, 0x2f,
    0x42, 0x69, 0x61, 0x73, 0x41, 0x64, 0x64, 0x2f, 0x52, 0x65, 0x61, 0x64,
    0x56, 0x61, 0x72, 0x69, 0x61, 0x62, 0x6c, 0x65, 0x4f, 0x70, 0x2f, 0x72,
    0x65, 0x73, 0x6f, 0x75, 0x72, 0x63, 0x65, 0x00, 0xd8, 0xe8, 0xff, 0xff,
    0x08, 0x00, 0x00, 0x00, 0x0c, 0x00, 0x00, 0x00, 0x01, 0x00, 0x00, 0x00,
    0x78, 0xf7, 0xcd, 0x3b, 0x01, 0x00, 0x00, 0x00, 0x80, 0xff, 0xff, 0xff,
    0xff, 0xff, 0xff, 0xff, 0x00, 0x00, 0x0a, 0x00, 0x0c, 0x00, 0x00, 0x00,
    0x04, 0x00, 0x08, 0x00, 0x0a, 0x00, 0x00, 0x00, 0x10, 0x00, 0x00, 0x00,
    0x04, 0x00, 0x00, 0x00, 0x01, 0x00, 0x00, 0x00, 0x10, 0x00, 0x00, 0x00,
    0x01, 0x00, 0x00, 0x00, 0x00, 0x00, 0x00, 0x00, 0x0c, 0x00, 0x10, 0x00,
    0x0b, 0x00, 0x00, 0x00, 0x0c, 0x00, 0x04, 0x00, 0x0c, 0x00, 0x00, 0x00,
    0x72, 0x00, 0x00, 0x00, 0x00, 0x00, 0x00, 0x72, 0x01, 0x00, 0x00, 0x00,
    0x14, 0x00, 0x1c, 0x00, 0x08, 0x00, 0x07, 0x00, 0x0c, 0x00, 0x10, 0x00,
    0x14, 0x00, 0x00, 0x00, 0x00, 0x00, 0x18, 0x00, 0x14, 0x00, 0x00, 0x00,
    0x00, 0x00, 0x00, 0x09, 0x14, 0x00, 0x00, 0x00, 0x11, 0x00, 0x00, 0x00,
    0x34, 0x00, 0x00, 0x00, 0x44, 0x00, 0x00, 0x00, 0x18, 0x00, 0x00, 0x00,
    0x04, 0x00, 0x00, 0x00, 0x01, 0x00, 0x00, 0x00, 0x1c, 0x00, 0x00, 0x00,
    0x1c, 0x00, 0x00, 0x00, 0x01, 0x00, 0x00, 0x00, 0x04, 0x00, 0x00, 0x00,
    0xff, 0xff, 0xff, 0xff, 0x1c, 0x00, 0x00, 0x00, 0x1c, 0x00, 0x00, 0x00,
    0x01, 0x00, 0x00, 0x00, 0x0c, 0x00, 0x00, 0x00, 0x74, 0x66, 0x6c, 0x2e,
    0x71, 0x75, 0x61, 0x6e, 0x74, 0x69, 0x7a, 0x65, 0x00, 0x00, 0x00, 0x00,
    0xa8, 0xe9, 0xff, 0xff, 0x08, 0x00, 0x00, 0x00, 0x0c, 0x00, 0x00, 0x00,
    0x01, 0x00, 0x00, 0x00, 0x81, 0x80, 0x80, 0x3b, 0x01, 0x00, 0x00, 0x00,
    0x80, 0xff, 0xff, 0xff, 0xff, 0xff, 0xff, 0xff, 0x42, 0xe9, 0xff, 0xff,
    0x04, 0x00, 0x00, 0x00, 0x28, 0x00, 0x00, 0x00, 0xd9, 0x00, 0x00, 0x00,
    0xfe, 0xff, 0xff, 0xff, 0x88, 0x00, 0x00, 0x00, 0xc1, 0xff, 0xff, 0xff,
    0x0a, 0xff, 0xff, 0xff, 0x77, 0x01, 0x00, 0x00, 0xd0, 0xff, 0xff, 0xff,
    0xfa, 0xff, 0xff, 0xff, 0xa0, 0xfe, 0xff, 0xff, 0x51, 0x00, 0x00, 0x00,
    0x5a, 0xe9, 0xff, 0xff, 0x00, 0x00, 0x00, 0x02, 0x10, 0x00, 0x00, 0x00,
    0x10, 0x00, 0x00, 0x00, 0x10, 0x00, 0x00, 0x00, 0x40, 0x00, 0x00, 0x00,
    0x01, 0x00, 0x00, 0x00, 0x0a, 0x00, 0x00, 0x00, 0x2d, 0x00, 0x00, 0x00,
    0x6d, 0x6f, 0x64, 0x65, 0x6c, 0x2f, 0x64, 0x65, 0x6e, 0x73, 0x65, 0x5f,
    0x32, 0x2f, 0x42, 0x69, 0x61, 0x73, 0x41, 0x64, 0x64, 0x2f, 0x52, 0x65,
    0x61, 0x64, 0x56, 0x61, 0x72, 0x69, 0x61, 0x62, 0x6c, 0x65, 0x4f, 0x70,
    0x2f, 0x72, 0x65, 0x73, 0x6f, 0x75, 0x72, 0x63, 0x65, 0x00, 0x00, 0x00,
    0x50, 0xea, 0xff, 0xff, 0x08, 0x00, 0x00, 0x00, 0x0c, 0x00, 0x00, 0x00,
    0x01, 0x00, 0x00, 0x00, 0x64, 0xc6, 0x96, 0x3a, 0x01, 0x00, 0x00, 0x00,
    0x00, 0x00, 0x00, 0x00, 0x00, 0x00, 0x00, 0x00, 0x00, 0x00, 0x00, 0x00,
    0xee, 0xe9, 0xff, 0xff, 0x04, 0x00, 0x00, 0x00, 0x50, 0x00, 0x00, 0x00,
    0x81, 0xed, 0x43, 0x28, 0x06, 0xcb, 0xb6, 0xed, 0x3c, 0xd2, 0x20, 0xfb,
    0xde, 0x06, 0xf3, 0xd0, 0xc7, 0x19, 0x04, 0xc5, 0x0f, 0x39, 0x0b, 0xed,
    0x34, 0x3a, 0x06, 0xbb, 0x02, 0xe8, 0xe5, 0xd2, 0xf7, 0xf4, 0xc2, 0x38,
    0xd4, 0x0f, 0xe3, 0x15, 0xeb, 0x13, 0x01, 0xfa, 0x5c, 0xdf, 0x34, 0xfd,
    0xc6, 0xae, 0xfd, 0xf2, 0xfe, 0xdd, 0xf2, 0x49, 0xf7, 0x39, 0xec, 0x19,
    0xec, 0x12, 0xb6, 0xc1, 0xe7, 0x37, 0x0a, 0xe1, 0xe6, 0xe2, 0xd4, 0x1c,
    0xfe, 0x5d, 0xca, 0x21, 0x0e, 0xc1, 0xbd, 0xff, 0x2e, 0xea, 0xff, 0xff,
    0x00, 0x00, 0x00, 0x09, 0x10, 0x00, 0x00, 0x00, 0x0f, 0x00, 0x00, 0x00,
    0x14, 0x00, 0x00, 0x00, 0x2c, 0x00, 0x00, 0x00, 0x02, 0x00, 0x00, 0x00,
    0x0a, 0x00, 0x00, 0x00, 0x08, 0x00, 0x00, 0x00, 0x14, 0x00, 0x00, 0x00,
    0x6d, 0x6f, 0x64, 0x65, 0x6c, 0x2f, 0x64, 0x65, 0x6e, 0x73, 0x65, 0x5f,
    0x32, 0x2f, 0x4d, 0x61, 0x74, 0x4d, 0x75, 0x6c, 0x00, 0x00, 0x00, 0x00,
    0x10, 0xeb, 0xff, 0xff, 0x08, 0x00, 0x00, 0x00, 0x0c, 0x00, 0x00, 0x00,
    0x01, 0x00, 0x00, 0x00, 0x54, 0x1f, 0xf1, 0x3b, 0x01, 0x00, 0x00, 0x00,
    0x00, 0x00, 0x00, 0x00, 0x00, 0x00, 0x00, 0x00, 0xaa, 0xea, 0xff, 0xff,
    0x04, 0x00, 0x00, 0x00, 0x20, 0x00, 0x00, 0x00, 0x99, 0xff, 0xff, 0xff,
    0x02, 0x00, 0x00, 0x00, 0x39, 0x00, 0x00, 0x00, 0x7d, 0x01, 0x00, 0x00,
    0x22, 0x01, 0x00, 0x00, 0x4c, 0x00, 0x00, 0x00, 0xce, 0x00, 0x00, 0x00,
    0x50, 0xff, 0xff, 0xff, 0xba, 0xea, 0xff, 0xff, 0x00, 0x00, 0x00, 0x02,
    0x10, 0x00, 0x00, 0x00, 0x0e, 0x00, 0x00, 0x00, 0x10, 0x00, 0x00, 0x00,
    0x40, 0x00, 0x00, 0x00, 0x01, 0x00, 0x00, 0x00, 0x08, 0x00, 0x00, 0x00,
    0x2d, 0x00, 0x00, 0x00, 0x6d, 0x6f, 0x64, 0x65, 0x6c, 0x2f, 0x64, 0x65,
    0x6e, 0x73, 0x65, 0x5f, 0x31, 0x2f, 0x42, 0x69, 0x61, 0x73, 0x41, 0x64,
    0x64, 0x2f, 0x52, 0x65, 0x61, 0x64, 0x56, 0x61, 0x72, 0x69, 0x61, 0x62,
    0x6c, 0x65, 0x4f, 0x70, 0x2f, 0x72, 0x65, 0x73, 0x6f, 0x75, 0x72, 0x63,
    0x65, 0x00, 0x00, 0x00, 0xb0, 0xeb, 0xff, 0xff, 0x08, 0x00, 0x00, 0x00,
    0x0c, 0x00, 0x00, 0x00, 0x01, 0x00, 0x00, 0x00, 0x72, 0xbf, 0xb6, 0x3a,
    0x01, 0x00, 0x00, 0x00, 0x00, 0x00, 0x00, 0x00, 0x00, 0x00, 0x00, 0x00,
    0x00, 0x00, 0x00, 0x00, 0x4e, 0xeb, 0xff, 0xff, 0x04, 0x00, 0x00, 0x00,
    0x40, 0x00, 0x00, 0x00, 0xbe, 0x7f, 0x01, 0x0a, 0x37, 0x53, 0x1a, 0xf9,
    0xd2, 0xe6, 0x50, 0xd6, 0x4f, 0xb9, 0xfa, 0xc2, 0x63, 0x5e, 0xec, 0x23,
    0x34, 0x06, 0xfa, 0xe0, 0x2f, 0x0b, 0x54, 0xaa, 0xe7, 0x50, 0xdd, 0x13,
    0xe9, 0x45, 0xbd, 0xb6, 0x30, 0x1d, 0x48, 0xd7, 0x01, 0xef, 0x3d, 0x67,
    0x19, 0x57, 0x9d, 0x05, 0xe5, 0x3e, 0xeb, 0x67, 0xee, 0xbe, 0x01, 0x47,
    0x09, 0xd0, 0x4b, 0x0e, 0xb7, 0xfd, 0x63, 0xe8, 0x7e, 0xeb, 0xff, 0xff,
    0x00, 0x00, 0x00, 0x09, 0x10, 0x00, 0x00, 0x00, 0x0d, 0x00, 0x00, 0x00,
    0x14, 0x00, 0x00, 0x00, 0x2c, 0x00, 0x00, 0x00, 0x02, 0x00, 0x00, 0x00,
    0x08, 0x00, 0x00, 0x00, 0x08, 0x00, 0x00, 0x00, 0x14, 0x00, 0x00, 0x00,
    0x6d, 0x6f, 0x64, 0x65, 0x6c, 0x2f, 0x64, 0x65, 0x6e, 0x73, 0x65, 0x5f,
    0x31, 0x2f, 0x4d, 0x61, 0x74, 0x4d, 0x75, 0x6c, 0x00, 0x00, 0x00, 0x00,
    0x60, 0xec, 0xff, 0xff, 0x08, 0x00, 0x00, 0x00, 0x0c, 0x00, 0x00, 0x00,
    0x01, 0x00, 0x00, 0x00, 0xb5, 0x73, 0xa3, 0x3b, 0x01, 0x00, 0x00, 0x00,
    0x00, 0x00, 0x00, 0x00, 0x00, 0x00, 0x00, 0x00, 0x00, 0x00, 0x00, 0x00,
    0xfe, 0xeb, 0xff, 0xff, 0x04, 0x00, 0x00, 0x00, 0x20, 0x00, 0x00, 0x00,
    0xe9, 0x01, 0x00, 0x00, 0x1f, 0x01, 0x00, 0x00, 0x37, 0x00, 0x00, 0x00,
    0x69, 0x01, 0x00, 0x00, 0xcd, 0x00, 0x00, 0x00, 0x6c, 0x01, 0x00, 0x00,
    0xc3, 0xfe, 0xff, 0xff, 0xad, 0x00, 0x00, 0x00, 0x0e, 0xec, 0xff, 0xff,
    0x00, 0x00, 0x00, 0x02, 0x10, 0x00, 0x00, 0x00, 0x0c, 0x00, 0x00, 0x00,
    0x10, 0x00, 0x00, 0x00, 0x3c, 0x00, 0x00, 0x00, 0x01, 0x00, 0x00, 0x00,
    0x08, 0x00, 0x00, 0x00, 0x2b, 0x00, 0x00, 0x00, 0x6d, 0x6f, 0x64, 0x65,
    0x6c, 0x2f, 0x64, 0x65, 0x6e, 0x73, 0x65, 0x2f, 0x42, 0x69, 0x61, 0x73,
    0x41, 0x64, 0x64, 0x2f, 0x52, 0x65, 0x61, 0x64, 0x56, 0x61, 0x72, 0x69,
    0x61, 0x62, 0x6c, 0x65, 0x4f, 0x70, 0x2f, 0x72, 0x65, 0x73, 0x6f, 0x75,
    0x72, 0x63, 0x65, 0x00, 0x00, 0xed, 0xff, 0xff, 0x08, 0x00, 0x00, 0x00,
    0x0c, 0x00, 0x00, 0x00, 0x01, 0x00, 0x00, 0x00, 0x68, 0xc3, 0x06, 0x3a,
    0x01, 0x00, 0x00, 0x00, 0x00, 0x00, 0x00, 0x00, 0x00, 0x00, 0x00, 0x00,
    0x9a, 0xec, 0xff, 0xff, 0x04, 0x00, 0x00, 0x00, 0x00, 0x04, 0x00, 0x00,
    0x0f, 0x39, 0x2b, 0x10, 0xfd, 0x12, 0xcd, 0x23, 0x2c, 0x0c, 0x00, 0x1e,
    0xea, 0x09, 0xdc, 0x0c, 0x19, 0xe8, 0x03, 0x25, 0xda, 0x35, 0xda, 0x1a,
    0xc6, 0xff, 0x22, 0x0b, 0x32, 0x63, 0x10, 0x19, 0x24, 0x20, 0x12, 0xff,
    0x35, 0xf7, 0xf4, 0xe3, 0xdf, 0x11, 0x13, 0xe7, 0x18, 0x19, 0xfa, 0xc4,
    0xec, 0xd3, 0xf7, 0x0f, 0xe8, 0x21, 0x00, 0x07, 0x17, 0x27, 0x19, 0x39,
    0x3a, 0x03, 0x14, 0x17, 0x05, 0xfc, 0xda, 0x03, 0x3e, 0x14, 0x36, 0xc3,
    0x15, 0xf4, 0x18, 0x17, 0x36, 0xd6, 0xd8, 0xcf, 0x17, 0xe8, 0x29, 0x03,
    0xfd, 0x3c, 0xf4, 0xf3, 0x4a, 0xf6, 0x0d, 0x3e, 0x18, 0xd0, 0xd9, 0x2c,
    0xb9, 0x0d, 0xd9, 0x3b, 0x39, 0x32, 0x1d, 0xea, 0x0a, 0xf1, 0x02, 0x07,
    0x36, 0x49, 0xe9, 0x07, 0x16, 0xb1, 0x26, 0x9c, 0x14, 0x1a, 0x31, 0x25,
    0x48, 0xc1, 0xec, 0x9f, 0xe4, 0xd8, 0x24, 0xff, 0xf4, 0xde, 0x03, 0xf4,
    0xc9, 0xc9, 0xc7, 0xc4, 0x17, 0x1d, 0xff, 0x1d, 0xfc, 0xfc, 0xb4, 0xc6,
    0xfc, 0x13, 0x3d, 0x00, 0x2e, 0x21, 0xac, 0xd5, 0xf1, 0xc7, 0x02, 0x61,
    0x1a, 0x44, 0xc7, 0x12, 0x11, 0x1a, 0xc0, 0xcb, 0x16, 0xfd, 0x93, 0xfc,
    0xfc, 0x1e, 0x31, 0xe3, 0x36, 0xff, 0xd4, 0x19, 0xe8, 0x03, 0xed, 0xcd,
    0x0b, 0x03, 0xe0, 0x01, 0xb9, 0x1c, 0xf4, 0x27, 0x0f, 0xdb, 0xbe, 0x0f,
    0x19, 0x0f, 0xdb, 0x11, 0xf9, 0xf3, 0xee, 0xfc, 0xfb, 0x02, 0xd1, 0x29,
    0xfd, 0xe8, 0xbe, 0xd9, 0x03, 0xcf, 0xdf, 0xd3, 0x1a, 0x12, 0xde, 0xd9,
    0x1d, 0xd1, 0xbd, 0x0a, 0x18, 0x29, 0xe9, 0xec, 0x01, 0x33, 0x1e, 0xfa,
    0x24, 0x0c, 0xa6, 0xfa, 0xc8, 0x03, 0xfc, 0x1f, 0x28, 0x1d, 0xd7, 0xe3,
    0xda, 0xbe, 0x22, 0x2c, 0x0b, 0xe6, 0xd5, 0xfe, 0xff, 0xc0, 0x2e, 0x2b,
    0xef, 0xf2, 0x1b, 0xf5, 0x39, 0x04, 0xf5, 0xef, 0x00, 0x2b, 0x7e, 0x22,
    0x0b, 0xf8, 0x2e, 0x26, 0xf5, 0x3d, 0x2b, 0xd5, 0xfc, 0x2d, 0x08, 0x1b,
    0x10, 0x37, 0x13, 0xf1, 0x11, 0x25, 0x0d, 0x4f, 0x20, 0x43, 0x02, 0xcd,
    0xf1, 0xf9, 0xdb, 0x20, 0x03, 0xfe, 0x65, 0xf4, 0x0d, 0x1f, 0x52, 0x23,
    0xdb, 0x10, 0x36, 0xe6, 0x53, 0x15, 0x0d, 0x1a, 0x25, 0x05, 0x09, 0xff,
    0x12, 0x29, 0xbd, 0x16, 0x2e, 0xe8, 0x05, 0xe8, 0x29, 0x37, 0xa7, 0x35,
    0x1e, 0xf4, 0x12, 0xf1, 0xd9, 0x37, 0xf6, 0xfd, 0x0e, 0x03, 0x0e, 0x1d,
    0xf1, 0x26, 0xd3, 0x60, 0x1d, 0x0e, 0xf3, 0x12, 0x03, 0xfc, 0xe5, 0x28,
    0x02, 0x08, 0xf8, 0x34, 0xe6, 0x43, 0xfa, 0x49, 0x65, 0xed, 0x1c, 0xe6,
    0xd4, 0x46, 0x10, 0x49, 0x2e, 0xec, 0x12, 0xcb, 0xc5, 0x2f, 0x13, 0x52,
    0xfe, 0x2b, 0x0f, 0xf5, 0xf3, 0xe6, 0xd8, 0x7d, 0x0d, 0x39, 0x19, 0x06,
    0xbf, 0xec, 0xe8, 0xcc, 0x2e, 0xe1, 0xea, 0x30, 0xfb, 0xd1, 0xf2, 0xda,
    0x15, 0x02, 0x13, 0xf4, 0xf4, 0xd9, 0xd3, 0x34, 0xf4, 0x01, 0x10, 0xe1,
    0xe6, 0xfe, 0xed, 0x21, 0x06, 0xff, 0xf7, 0xa4, 0x39, 0x1d, 0x39, 0xdc,
    0xd4, 0xc3, 0x0f, 0x1d, 0x40, 0xf7, 0xfb, 0xe6, 0x08, 0x27, 0x08, 0xf8,
    0xf5, 0x20, 0x2d, 0x04, 0x2d, 0xf9, 0x13, 0x09, 0x36, 0x0c, 0xec, 0x28,
    0xe5, 0xde, 0xf0, 0x46, 0x1b, 0x2e, 0x28, 0x06, 0x0f, 0xd5, 0xf9, 0xed,
    0xfe, 0x1a, 0xe4, 0x1e, 0x19, 0xe5, 0xfb, 0xf8, 0x08, 0x25, 0x0d, 0xea,
    0x22, 0x36, 0x0c, 0x08, 0x50, 0xeb, 0x0c, 0x0e, 0x0f, 0x29, 0x28, 0x20,
    0xe4, 0x23, 0x08, 0x2d, 0x11, 0x20, 0xfc, 0x22, 0xf1, 0xfb, 0xf4, 0xe5,
    0x02, 0x2d, 0x0a, 0x14, 0x0f, 0xa9, 0xec, 0xf4, 0x05, 0x38, 0x27, 0xed,
    0x52, 0xcb, 0x18, 0xf9, 0xa5, 0x13, 0x66, 0x45, 0xd4, 0x14, 0x1a, 0xc7,
    0xf7, 0xda, 0x39, 0x7f, 0x1f, 0x02, 0x4c, 0xf9, 0xf7, 0xe9, 0x63, 0x57,
    0x06, 0x31, 0x09, 0xcc, 0x11, 0x24, 0x22, 0x3f, 0x07, 0x20, 0xfd, 0xb4,
    0x16, 0x17, 0xf0, 0xe0, 0x01, 0x14, 0x32, 0xda, 0xab, 0xd8, 0xe9, 0xf3,
    0x03, 0xe5, 0xf6, 0x2d, 0x13, 0xe8, 0x0d, 0xf8, 0xe3, 0xfc, 0xfe, 0xef,
    0x39, 0x4a, 0x0e, 0x29, 0xfb, 0xe6, 0xf9, 0x14, 0x07, 0xee, 0xfc, 0x28,
    0x19, 0xf9, 0x56, 0xf6, 0xe4, 0xde, 0xf3, 0x11, 0x35, 0x08, 0x11, 0x32,
    0xf3, 0xf7, 0xc4, 0x14, 0xff, 0xe0, 0x19, 0xe8, 0x14, 0xf2, 0x26, 0xf8,
    0xf9, 0x16, 0xf9, 0xeb, 0xf1, 0xfd, 0x22, 0xf2, 0x21, 0x01, 0x2f, 0xe2,
    0x17, 0x2d, 0xfc, 0xf0, 0x43, 0x07, 0x35, 0x1e, 0x33, 0x28, 0x0c, 0xf5,
    0x21, 0x0d, 0x25, 0x0b, 0x10, 0x1d, 0x28, 0xd7, 0xf5, 0x0f, 0x15, 0xd4,
    0x12, 0x1e, 0x31, 0xf0, 0xdc, 0x01, 0x46, 0xd2, 0xfd, 0x24, 0xc7, 0xe4,
    0x13, 0x02, 0x17, 0xf7, 0xf8, 0x2f, 0xd2, 0xec, 0xf6, 0x21, 0xd4, 0x18,
    0x38, 0x50, 0xc2, 0xb4, 0xfe, 0xda, 0xc3, 0x5e, 0x38, 0xe9, 0xbd, 0xfe,
    0x1e, 0xfb, 0x42, 0xd0, 0x15, 0x03, 0xa8, 0x38, 0xff, 0xf7, 0x10, 0x1a,
    0x36, 0xf5, 0xde, 0x00, 0xde, 0x29, 0x13, 0x07, 0xdd, 0x20, 0xec, 0x07,
    0x11, 0x1a, 0xfe, 0x23, 0x05, 0x17, 0xf1, 0x0f, 0xf1, 0xe6, 0x06, 0xd3,
    0xec, 0xd7, 0x1e, 0x2b, 0xe0, 0xf2, 0x02, 0x27, 0x19, 0xfe, 0xf7, 0x05,
    0xc6, 0x34, 0xe0, 0x19, 0xfb, 0x1b, 0xec, 0x41, 0x45, 0xe7, 0xeb, 0x0a,
    0x02, 0x23, 0xde, 0xe0, 0x3d, 0x13, 0x3e, 0xef, 0x0b, 0xad, 0x0a, 0x0a,
    0x0b, 0x1c, 0x2b, 0xee, 0x26, 0xf4, 0x11, 0xfa, 0xd7, 0x23, 0xf9, 0x3b,
    0x16, 0x23, 0xe3, 0xfa, 0xe7, 0x11, 0xe2, 0x40, 0x03, 0x0e, 0xcd, 0xfd,
    0xfb, 0x33, 0xa0, 0x6c, 0x1f, 0x55, 0xe3, 0xc3, 0xee, 0x24, 0xb7, 0x0e,
    0x22, 0xff, 0xe3, 0x0e, 0x2e, 0xe3, 0xfd, 0x0c, 0x41, 0x0c, 0x18, 0x2e,
    0x3e, 0xe6, 0xc0, 0x09, 0xd1, 0xb0, 0x10, 0x50, 0xcf, 0x11, 0xbd, 0x1f,
    0xe0, 0x45, 0x74, 0xf0, 0x14, 0x28, 0x3a, 0xf2, 0x27, 0x1a, 0x00, 0x04,
    0x09, 0x1d, 0x08, 0x06, 0xeb, 0x33, 0xfe, 0x0a, 0x24, 0xc0, 0x19, 0x8f,
    0xdc, 0xf3, 0x21, 0x46, 0x1c, 0xdd, 0x1b, 0x0d, 0xd9, 0x11, 0x1f, 0xe8,
    0xdc, 0x18, 0x10, 0x1a, 0x3d, 0x26, 0x2a, 0x33, 0xed, 0x0c, 0x13, 0x20,
    0xec, 0x16, 0x2b, 0xf2, 0xd2, 0xfb, 0x3c, 0xa9, 0x08, 0x0a, 0x4f, 0xaf,
    0x16, 0x0d, 0xff, 0x28, 0xfa, 0x0a, 0x3d, 0x08, 0x02, 0xf8, 0x07, 0xf0,
    0x0e, 0x28, 0x6f, 0x15, 0x1b, 0xd1, 0x22, 0xe0, 0xe9, 0x09, 0x3b, 0xdd,
    0x07, 0x02, 0x10, 0x9f, 0xf7, 0x1b, 0x45, 0xc6, 0xcb, 0xef, 0xc1, 0xe8,
    0xd0, 0xf5, 0xea, 0x11, 0x21, 0xfa, 0xfc, 0xe4, 0x05, 0xdf, 0xe6, 0x0a,
    0xd9, 0xf5, 0x10, 0x10, 0x11, 0x16, 0xf1, 0x14, 0x0c, 0xe5, 0xec, 0x00,
    0xfa, 0x19, 0x1d, 0x11, 0xeb, 0x19, 0x00, 0x1b, 0xda, 0xe1, 0xf1, 0x13,
    0x12, 0x1d, 0x04, 0xfb, 0x06, 0x09, 0x0a, 0x1c, 0xeb, 0xfc, 0xf8, 0xf5,
    0xe9, 0xe6, 0xfe, 0xe8, 0xf8, 0xe6, 0xf3, 0xdf, 0xd0, 0xc1, 0xdc, 0xe5,
    0xd3, 0xf4, 0x15, 0xbf, 0xef, 0x0d, 0xf9, 0x01, 0x09, 0x02, 0xe4, 0xfb,
    0xd6, 0x01, 0xf6, 0x0b, 0xff, 0xf7, 0x01, 0xe8, 0xd4, 0xfc, 0xf7, 0xde,
    0x19, 0xd0, 0xea, 0xed, 0x02, 0xec, 0x14, 0xf9, 0xe1, 0xec, 0xf5, 0x12,
    0xf4, 0x31, 0xe7, 0xeb, 0xd6, 0x03, 0x11, 0xcc, 0x0a, 0x18, 0xe5, 0x10,
    0x0b, 0xff, 0xfe, 0x14, 0xfe, 0xff, 0xe1, 0xe0, 0x02, 0x16, 0xd5, 0x02,
    0x11, 0xd5, 0x3c, 0xfa, 0x8a, 0xf0, 0xff, 0xff, 0x00, 0x00, 0x00, 0x09,
    0x10, 0x00, 0x00, 0x00, 0x0b, 0x00, 0x00, 0x00, 0x14, 0x00, 0x00, 0x00,
    0x28, 0x00, 0x00, 0x00, 0x02, 0x00, 0x00, 0x00, 0x08, 0x00, 0x00, 0x00,
    0x80, 0x00, 0x00, 0x00, 0x12, 0x00, 0x00, 0x00, 0x6d, 0x6f, 0x64, 0x65,
    0x6c, 0x2f, 0x64, 0x65, 0x6e, 0x73, 0x65, 0x2f, 0x4d, 0x61, 0x74, 0x4d,
    0x75, 0x6c, 0x00, 0x00, 0x68, 0xf1, 0xff, 0xff, 0x08, 0x00, 0x00, 0x00,
    0x0c, 0x00, 0x00, 0x00, 0x01, 0x00, 0x00, 0x00, 0x95, 0xa1, 0x97, 0x3b,
    0x01, 0x00, 0x00, 0x00, 0x00, 0x00, 0x00, 0x00, 0x00, 0x00, 0x00, 0x00,
    0x00, 0x00, 0x00, 0x00, 0x06, 0xf1, 0xff, 0xff, 0x04, 0x00, 0x00, 0x00,
    0x20, 0x00, 0x00, 0x00, 0x7b, 0xfe, 0xff, 0xff, 0x1a, 0x01, 0x00, 0x00,
    0xf7, 0x00, 0x00, 0x00, 0x90, 0x01, 0x00, 0x00, 0x76, 0x03, 0x00, 0x00,
    0xa2, 0x03, 0x00, 0x00, 0xe4, 0xfe, 0xff, 0xff, 0xf8, 0xfd, 0xff, 0xff,
    0x16, 0xf1, 0xff, 0xff, 0x00, 0x00, 0x00, 0x02, 0x10, 0x00, 0x00, 0x00,
    0x0a, 0x00, 0x00, 0x00, 0x10, 0x00, 0x00, 0x00, 0x80, 0x00, 0x00, 0x00,
    0x01, 0x00, 0x00, 0x00, 0x08, 0x00, 0x00, 0x00, 0x6f, 0x00, 0x00, 0x00,
    0x6d, 0x6f, 0x64, 0x65, 0x6c, 0x2f, 0x63, 0x6f, 0x6e, 0x76, 0x32, 0x64,
    0x5f, 0x33, 0x2f, 0x42, 0x69, 0x61, 0x73, 0x41, 0x64, 0x64, 0x3b, 0x6d,
    0x6f, 0x64, 0x65, 0x6c, 0x2f, 0x63, 0x6f, 0x6e, 0x76, 0x32, 0x64, 0x2f,
    0x43, 0x6f, 0x6e, 0x76, 0x32, 0x44, 0x3b, 0x6d, 0x6f, 0x64, 0x65, 0x6c,
    0x2f, 0x63, 0x6f, 0x6e, 0x76, 0x32, 0x64, 0x5f, 0x33, 0x2f, 0x43, 0x6f,
    0x6e, 0x76, 0x32, 0x44, 0x3b, 0x6d, 0x6f, 0x64, 0x65, 0x6c, 0x2f, 0x63,
    0x6f, 0x6e, 0x76, 0x32, 0x64, 0x5f, 0x33, 0x2f, 0x42, 0x69, 0x61, 0x73,
    0x41, 0x64, 0x64, 0x2f, 0x52, 0x65, 0x61, 0x64, 0x56, 0x61, 0x72, 0x69,
    0x61, 0x62, 0x6c, 0x65, 0x4f, 0x70, 0x2f, 0x72, 0x65, 0x73, 0x6f, 0x75,
    0x72, 0x63, 0x65, 0x00, 0x4c, 0xf2, 0xff, 0xff, 0x08, 0x00, 0x00, 0x00,
    0x28, 0x00, 0x00, 0x00, 0x08, 0x00, 0x00, 0x00, 0x5c, 0x01, 0x49, 0x39,
    0x2e, 0x37, 0x95, 0x39, 0xe0, 0xf3, 0xa7, 0x39, 0x4f, 0x0f, 0x9e, 0x39,
    0xf6, 0x7d, 0xb0, 0x39, 0x75, 0x4d, 0x7f, 0x39, 0x1f, 0xd4, 0x85, 0x39,
    0x32, 0x5b, 0x7c, 0x39, 0x08, 0x00, 0x00, 0x00, 0x00, 0x00, 0x00, 0x00,
    0x00, 0x00, 0x00, 0x00, 0x00, 0x00, 0x00, 0x00, 0x00, 0x00, 0x00, 0x00,
    0x00, 0x00, 0x00, 0x00, 0x00, 0x00, 0x00, 0x00, 0x00, 0x00, 0x00, 0x00,
    0x00, 0x00, 0x00, 0x00, 0x00, 0x00, 0x00, 0x00, 0x00, 0x00, 0x00, 0x00,
    0x00, 0x00, 0x00, 0x00, 0x00, 0x00, 0x00, 0x00, 0x00, 0x00, 0x00, 0x00,
    0x00, 0x00, 0x00, 0x00, 0x00, 0x00, 0x00, 0x00, 0x00, 0x00, 0x00, 0x00,
    0x3a, 0xf2, 0xff, 0xff, 0x04, 0x00, 0x00, 0x00, 0x40, 0x02, 0x00, 0x00,
    0xbf, 0xd7, 0xd4, 0xd4, 0x59, 0x75, 0x27, 0x93, 0xde, 0x08, 0xc4, 0x0a,
    0x56, 0x1f, 0x16, 0xc8, 0x31, 0x06, 0xcd, 0xce, 0x26, 0x3d, 0x28, 0xd5,
    0xe1, 0xd2, 0x29, 0x81, 0x15, 0x52, 0xec, 0xc8, 0x01, 0x00, 0x30, 0xb4,
    0xe3, 0x2b, 0x1f, 0x8c, 0xcb, 0x13, 0x53, 0xad, 0x9c, 0xe5, 0xed, 0xe9,
    0xcf, 0xe9, 0x59, 0xc0, 0x0b, 0xda, 0x25, 0xe7, 0xf5, 0x50, 0x2b, 0x0c,
    0x60, 0xeb, 0x34, 0x03, 0xcf, 0x2e, 0x51, 0xe1, 0x12, 0xf9, 0x29, 0x2c,
    0x5c, 0xd7, 0x3d, 0x9e, 0x27, 0xee, 0x0e, 0xc8, 0xf7, 0xb7, 0x18, 0xce,
    0x0c, 0xf0, 0xee, 0xcb, 0xc9, 0xc9, 0x2e, 0x05, 0xeb, 0x09, 0x2a, 0xe4,
    0x7f, 0xf6, 0xf7, 0xa2, 0xdb, 0x44, 0xb7, 0xf6, 0x17, 0xe2, 0x14, 0x20,
    0x05, 0x06, 0xf7, 0xe7, 0x98, 0xf6, 0x21, 0x27, 0x0e, 0xe8, 0xe7, 0x29,
    0x4c, 0x03, 0xef, 0xe3, 0xc6, 0x2a, 0xfa, 0xe9, 0x9f, 0x04, 0x25, 0xf1,
    0xe4, 0xf4, 0xf3, 0x4f, 0x82, 0x45, 0x00, 0x15, 0xf2, 0xa2, 0xf0, 0x56,
    0x3f, 0xf8, 0x06, 0xfb, 0x7c, 0xc5, 0x0b, 0xe6, 0x26, 0x12, 0xdc, 0x0e,
    0x5b, 0xd7, 0x17, 0x0f, 0x46, 0xfe, 0xeb, 0xed, 0x66, 0x9f, 0x1c, 0x04,
    0x60, 0x0d, 0xe2, 0x17, 0xcc, 0xcf, 0x13, 0x15, 0x1a, 0xc4, 0xee, 0x0a,
    0x0c, 0x84, 0x1a, 0xe9, 0xbf, 0xc5, 0x23, 0x24, 0x27, 0xef, 0x20, 0x39,
    0xc2, 0xdc, 0xfe, 0x09, 0xc8, 0xbb, 0x0b, 0x30, 0x81, 0xfc, 0x05, 0xf0,
    0xdb, 0xbc, 0x32, 0xf5, 0xc0, 0x16, 0xf2, 0xf1, 0xe9, 0xf4, 0x12, 0xcc,
    0xfc, 0xfa, 0xf2, 0xeb, 0xde, 0x6d, 0xa9, 0x19, 0xe2, 0x0e, 0x0b, 0x26,
    0x05, 0x85, 0xeb, 0x03, 0x9b, 0x51, 0x07, 0x5a, 0x0b, 0xa3, 0xfa, 0x13,
    0xec, 0xd4, 0xfb, 0xc0, 0xfc, 0x0c, 0xd7, 0x0b, 0x81, 0x34, 0xde, 0x12,
    0x35, 0x94, 0xfc, 0x18, 0xe1, 0x58, 0xe9, 0x03, 0x22, 0xaf, 0xe6, 0x31,
    0x06, 0x1f, 0xea, 0x03, 0x35, 0x82, 0x07, 0x24, 0xb3, 0x2f, 0xf5, 0xf0,
    0x47, 0xcf, 0x19, 0x08, 0xfa, 0xed, 0x0a, 0xdf, 0x59, 0x0f, 0xe6, 0x0b,
    0xe7, 0xfd, 0xfc, 0x37, 0x1d, 0xfd, 0xf0, 0xf1, 0xd2, 0xf2, 0x06, 0x12,
    0xfa, 0x16, 0xf8, 0x22, 0xc0, 0x01, 0xfe, 0x23, 0xeb, 0xf0, 0x22, 0x2c,
    0xf2, 0xf9, 0x21, 0x3b, 0x04, 0x23, 0xfe, 0x14, 0x81, 0x03, 0x0f, 0xfc,
    0x10, 0xde, 0x1f, 0x13, 0x86, 0x35, 0xe5, 0xe8, 0xf5, 0x30, 0xf9, 0x2d,
    0x92, 0xfc, 0x28, 0xd4, 0x20, 0x89, 0xf6, 0x48, 0x87, 0x14, 0x1a, 0x0c,
    0xe6, 0xa5, 0xf4, 0x44, 0xfd, 0x48, 0x15, 0xfc, 0xce, 0xe1, 0xe5, 0x35,
    0xfd, 0x20, 0xd5, 0x22, 0x6d, 0xb1, 0x4f, 0x43, 0xf4, 0x04, 0x00, 0xd1,
    0x09, 0xc0, 0x1c, 0x5a, 0xdb, 0xee, 0x1e, 0xbf, 0xf7, 0xe3, 0xf1, 0xfd,
    0xb1, 0x02, 0x04, 0x03, 0x27, 0x81, 0x42, 0x40, 0x09, 0xf9, 0x07, 0xd1,
    0xbe, 0xc1, 0x2b, 0x4a, 0x15, 0xe7, 0x22, 0xcf, 0xbe, 0xab, 0x36, 0xa9,
    0xbc, 0x24, 0xc6, 0x30, 0x4d, 0x06, 0xe4, 0x4e, 0xfc, 0xe6, 0x00, 0xec,
    0xd7, 0xcd, 0x16, 0x22, 0xfd, 0xf8, 0x48, 0xd5, 0xf2, 0xab, 0x08, 0x38,
    0x3c, 0x1a, 0x48, 0x06, 0x1c, 0xe9, 0xf6, 0x00, 0x0d, 0x33, 0x18, 0x03,
    0x2d, 0x8b, 0xf0, 0xe2, 0x22, 0x58, 0xe2, 0xea, 0xf3, 0x83, 0x03, 0xe9,
    0x66, 0x31, 0xc4, 0x30, 0xea, 0xd5, 0xe1, 0xde, 0x08, 0xf7, 0xfe, 0xcb,
    0x23, 0x96, 0xd4, 0xec, 0x88, 0xe4, 0xcc, 0xcc, 0xf9, 0xa0, 0x3a, 0x21,
    0x05, 0x01, 0x35, 0x9d, 0xcd, 0xd9, 0xfd, 0xbd, 0xf9, 0xc9, 0x2d, 0x81,
    0xfb, 0xe4, 0x4c, 0xd5, 0xb2, 0xfa, 0x25, 0x99, 0xfc, 0xf3, 0x5d, 0xd2,
    0x2a, 0xe3, 0x0d, 0x19, 0x30, 0xdb, 0xc3, 0xe0, 0x15, 0xd2, 0x26, 0xc3,
    0x17, 0xb2, 0xd6, 0x08, 0x45, 0x1e, 0x6f, 0x2e, 0x59, 0x1e, 0x34, 0x06,
    0x37, 0x05, 0xe9, 0x13, 0xfb, 0xeb, 0xcf, 0x15, 0x5e, 0xfd, 0x26, 0xd2,
    0x1f, 0x35, 0xa6, 0x19, 0x7f, 0x1e, 0x20, 0x0e, 0x33, 0x6e, 0x04, 0xf9,
    0x35, 0x01, 0xee, 0x2b, 0x0f, 0xf8, 0xcd, 0xee, 0x56, 0x06, 0x24, 0x35,
    0x2e, 0x1c, 0xc7, 0xcb, 0x6d, 0x38, 0x20, 0x0e, 0x22, 0x65, 0xb9, 0xaf,
    0x6a, 0xf4, 0xff, 0xff, 0x00, 0x00, 0x00, 0x09, 0x10, 0x00, 0x00, 0x00,
    0x09, 0x00, 0x00, 0x00, 0x1c, 0x00, 0x00, 0x00, 0x34, 0x00, 0x00, 0x00,
    0x04, 0x00, 0x00, 0x00, 0x08, 0x00, 0x00, 0x00, 0x03, 0x00, 0x00, 0x00,
    0x03, 0x00, 0x00, 0x00, 0x08, 0x00, 0x00, 0x00, 0x15, 0x00, 0x00, 0x00,
    0x6d, 0x6f, 0x64, 0x65, 0x6c, 0x2f, 0x63, 0x6f, 0x6e, 0x76, 0x32, 0x64,
    0x5f, 0x33, 0x2f, 0x43, 0x6f, 0x6e, 0x76, 0x32, 0x44, 0x00, 0x00, 0x00,
    0x54, 0xf5, 0xff, 0xff, 0x08, 0x00, 0x00, 0x00, 0x28, 0x00, 0x00, 0x00,
    0x08, 0x00, 0x00, 0x00, 0xe2, 0x12, 0x4c, 0x3b, 0x4f, 0x7e, 0x97, 0x3b,
    0x3b, 0x84, 0xaa, 0x3b, 0x01, 0x79, 0xa0, 0x3b, 0xb0, 0x2f, 0xb3, 0x3b,
    0x96, 0x99, 0x81, 0x3b, 0x1f, 0xdf, 0x87, 0x3b, 0xb3, 0x1a, 0x80, 0x3b,
    0x08, 0x00, 0x00, 0x00, 0x00, 0x00, 0x00, 0x00, 0x00, 0x00, 0x00, 0x00,
    0x00, 0x00, 0x00, 0x00, 0x00, 0x00, 0x00, 0x00, 0x00, 0x00, 0x00, 0x00,
    0x00, 0x00, 0x00, 0x00, 0x00, 0x00, 0x00, 0x00, 0x00, 0x00, 0x00, 0x00,
    0x00, 0x00, 0x00, 0x00, 0x00, 0x00, 0x00, 0x00, 0x00, 0x00, 0x00, 0x00,
    0x00, 0x00, 0x00, 0x00, 0x00, 0x00, 0x00, 0x00, 0x00, 0x00, 0x00, 0x00,
    0x00, 0x00, 0x00, 0x00, 0x00, 0x00, 0x00, 0x00, 0x00, 0x00, 0x00, 0x00,
    0x46, 0xf5, 0xff, 0xff, 0x04, 0x00, 0x00, 0x00, 0x20, 0x00, 0x00, 0x00,
    0x83, 0x02, 0x00, 0x00, 0x7b, 0x03, 0x00, 0x00, 0xf0, 0xfd, 0xff, 0xff,
    0xf1, 0x05, 0x00, 0x00, 0x46, 0x04, 0x00, 0x00, 0xe9, 0x05, 0x00, 0x00,
    0x5b, 0x04, 0x00, 0x00, 0x2f, 0x08, 0x00, 0x00, 0x56, 0xf5, 0xff, 0xff,
    0x00, 0x00, 0x00, 0x02, 0x10, 0x00, 0x00, 0x00, 0x08, 0x00, 0x00, 0x00,
    0x10, 0x00, 0x00, 0x00, 0x80, 0x00, 0x00, 0x00, 0x01, 0x00, 0x00, 0x00,
    0x08, 0x00, 0x00, 0x00, 0x6f, 0x00, 0x00, 0x00, 0x6d, 0x6f, 0x64, 0x65,
    0x6c, 0x2f, 0x63, 0x6f, 0x6e, 0x76, 0x32, 0x64, 0x5f, 0x32, 0x2f, 0x42,
    0x69, 0x61, 0x73, 0x41, 0x64, 0x64, 0x3b, 0x6d, 0x6f, 0x64, 0x65, 0x6c,
    0x2f, 0x63, 0x6f, 0x6e, 0x76, 0x32, 0x64, 0x2f, 0x43, 0x6f, 0x6e, 0x76,
    0x32, 0x44, 0x3b, 0x6d, 0x6f, 0x64, 0x65, 0x6c, 0x2f, 0x63, 0x6f, 0x6e,
    0x76, 0x32, 0x64, 0x5f, 0x32, 0x2f, 0x43, 0x6f, 0x6e, 0x76, 0x32, 0x44,
    0x3b, 0x6d, 0x6f, 0x64, 0x65, 0x6c, 0x2f, 0x63, 0x6f, 0x6e, 0x76, 0x32,
    0x64, 0x5f, 0x32, 0x2f, 0x42, 0x69, 0x61, 0x73, 0x41, 0x64, 0x64, 0x2f,
    0x52, 0x65, 0x61, 0x64, 0x56, 0x61, 0x72, 0x69, 0x61, 0x62, 0x6c, 0x65,
    0x4f, 0x70, 0x2f, 0x72, 0x65, 0x73, 0x6f, 0x75, 0x72, 0x63, 0x65, 0x00,
    0x8c, 0xf6, 0xff, 0xff, 0x08, 0x00, 0x00, 0x00, 0x28, 0x00, 0x00, 0x00,
    0x08, 0x00, 0x00, 0x00, 0xb5, 0x88, 0x35, 0x39, 0x5b, 0xca, 0xfd, 0x38,
    0x78, 0x4c, 0xa2, 0x38, 0xfd, 0x29, 0x1b, 0x39, 0xd9, 0x85, 0x0b, 0x39,
    0xc1, 0xb2, 0x2d, 0x39, 0xa5, 0x57, 0x0d, 0x39, 0x98, 0x57, 0x06, 0x39,
    0x08, 0x00, 0x00, 0x00, 0x00, 0x00, 0x00, 0x00, 0x00, 0x00, 0x00, 0x00,
    0x00, 0x00, 0x00, 0x00, 0x00, 0x00, 0x00, 0x00, 0x00, 0x00, 0x00, 0x00,
    0x00, 0x00, 0x00, 0x00, 0x00, 0x00, 0x00, 0x00, 0x00, 0x00, 0x00, 0x00,
    0x00, 0x00, 0x00, 0x00, 0x00, 0x00, 0x00, 0x00, 0x00, 0x00, 0x00, 0x00,
    0x00, 0x00, 0x00, 0x00, 0x00, 0x00, 0x00, 0x00, 0x00, 0x00, 0x00, 0x00,
    0x00, 0x00, 0x00, 0x00, 0x00, 0x00, 0x00, 0x00, 0x7a, 0xf6, 0xff, 0xff,
    0x04, 0x00, 0x00, 0x00, 0x40, 0x02, 0x00, 0x00, 0x0a, 0x01, 0x00, 0x0f,
    0xe5, 0xbd, 0xf4, 0xff, 0x3b, 0x0c, 0xf9, 0xfc, 0x1e, 0xfa, 0x00, 0xfc,
    0x44, 0x17, 0x1d, 0x2b, 0x2b, 0x1a, 0x2c, 0xcc, 0x9b, 0xc5, 0xef, 0x31,
    0x9b, 0x05, 0xd2, 0x0f, 0xcc, 0xc4, 0xf9, 0x47, 0xb2, 0xd1, 0xd7, 0x07,
    0xcb, 0x02, 0xf3, 0x5c, 0xbf, 0xbb, 0xf4, 0xd7, 0x02, 0xfe, 0x30, 0xf8,
    0x37, 0x35, 0x2f, 0x0b, 0x19, 0xc4, 0x06, 0x11, 0x0e, 0x16, 0xf5, 0x09,
    0xfc, 0x81, 0x0d, 0x02, 0xf1, 0x01, 0xfa, 0x2f, 0x30, 0x36, 0x02, 0x1c,
    0x3a, 0x1d, 0x13, 0xcf, 0x33, 0x40, 0x12, 0x0a, 0x11, 0x47, 0x11, 0xb4,
    0x27, 0x65, 0x24, 0x79, 0x2f, 0x1b, 0x40, 0xd8, 0x17, 0x25, 0x01, 0xf8,
    0x22, 0xf3, 0x0e, 0xd5, 0xff, 0x0e, 0xf8, 0x46, 0x22, 0xd9, 0x01, 0x08,
    0xed, 0x06, 0x08, 0x73, 0xcd, 0x81, 0xc6, 0x02, 0x15, 0x13, 0xc2, 0xf0,
    0x0c, 0xde, 0xd9, 0x1e, 0xe9, 0xf2, 0xfe, 0x36, 0xb8, 0xc1, 0x01, 0x33,
    0xdc, 0xac, 0x34, 0x1c, 0xd8, 0xba, 0x3c, 0x34, 0x01, 0x0f, 0x36, 0xda,
    0x1d, 0x25, 0x0a, 0x14, 0x4b, 0x24, 0xe8, 0xe2, 0x39, 0xe2, 0xb4, 0xf3,
    0x02, 0x13, 0xee, 0x0d, 0xfd, 0x2a, 0xdf, 0xf1, 0x26, 0xbe, 0x21, 0xe9,
    0xda, 0x15, 0x13, 0x53, 0x06, 0xff, 0x48, 0x18, 0x17, 0x42, 0x50, 0x16,
    0xdc, 0xba, 0x7f, 0x30, 0x36, 0x7e, 0x73, 0xda, 0x1a, 0xa5, 0x5d, 0x21,
    0x0f, 0x35, 0x74, 0x74, 0x1f, 0x93, 0x7e, 0x3e, 0x3e, 0x06, 0x49, 0x17,
    0x4a, 0xaf, 0x70, 0xf2, 0x43, 0x15, 0x1f, 0x1a, 0x3a, 0xea, 0x06, 0xc2,
    0x33, 0x1e, 0x07, 0xcf, 0x27, 0xfd, 0x0a, 0xdf, 0x23, 0x0e, 0x16, 0xef,
    0x1c, 0xf9, 0x24, 0x16, 0x33, 0x0d, 0x3f, 0x10, 0x1a, 0x06, 0xe3, 0xe5,
    0x16, 0x04, 0xfe, 0xad, 0x39, 0xfa, 0xd3, 0xe5, 0x16, 0x0c, 0xf0, 0xf4,
    0x37, 0x0a, 0xc4, 0x27, 0x0c, 0xc5, 0xfb, 0x07, 0x1a, 0xf8, 0x89, 0xee,
    0x07, 0x19, 0x98, 0x83, 0x21, 0x0c, 0x81, 0xb8, 0x05, 0xd9, 0xaf, 0xf6,
    0x03, 0x0d, 0xf1, 0xf9, 0x00, 0xc4, 0xf3, 0x00, 0x8d, 0xdf, 0xfe, 0x31,
    0xd2, 0x1e, 0xc0, 0xbc, 0x1c, 0x07, 0x04, 0xdb, 0x0f, 0x2a, 0xf1, 0xe9,
    0x19, 0xe1, 0x38, 0xf4, 0x1d, 0x57, 0x14, 0x30, 0xbd, 0x81, 0x28, 0xef,
    0xe6, 0xf2, 0xee, 0x1f, 0xf5, 0xe2, 0x00, 0xf1, 0xf1, 0xd8, 0xfa, 0x09,
    0xf2, 0xc6, 0x14, 0x06, 0xf3, 0x00, 0x28, 0x4d, 0x29, 0x05, 0x0d, 0xaf,
    0x37, 0x13, 0x2c, 0x33, 0xfe, 0xf7, 0x1d, 0x32, 0xdf, 0xd6, 0xf9, 0x5f,
    0xdd, 0xd7, 0x03, 0x4f, 0xd9, 0xcb, 0x04, 0x4c, 0x04, 0x0d, 0xdf, 0xd8,
    0xe4, 0x07, 0x08, 0x43, 0x25, 0x17, 0xf2, 0xe5, 0x02, 0x31, 0xf6, 0x14,
    0xf3, 0x18, 0xe6, 0x27, 0x0a, 0x2c, 0xfb, 0xc2, 0xdf, 0x15, 0xd8, 0x2c,
    0xe4, 0xd0, 0xed, 0x32, 0x36, 0x1e, 0xfb, 0x1a, 0xf6, 0xf8, 0x01, 0x12,
    0xd8, 0x32, 0xc8, 0x1d, 0xe9, 0xda, 0xeb, 0x9e, 0x81, 0xeb, 0x9c, 0x58,
    0x98, 0xa7, 0xbe, 0xcb, 0xa9, 0x16, 0x0e, 0x39, 0xdc, 0x3d, 0xe4, 0xaf,
    0xb2, 0x2f, 0x44, 0x15, 0xf5, 0x4b, 0xe9, 0xc4, 0x01, 0xfb, 0x0d, 0x23,
    0x15, 0xe1, 0x11, 0x04, 0x25, 0xee, 0xd0, 0x08, 0xf1, 0xa7, 0xbc, 0x31,
    0x0a, 0xe2, 0xd3, 0x81, 0x05, 0xe6, 0xc9, 0x28, 0xf1, 0xfd, 0x36, 0xae,
    0x08, 0xf2, 0xf6, 0x5e, 0x03, 0x31, 0x14, 0xd3, 0x19, 0x13, 0xf3, 0x46,
    0x2e, 0x2b, 0xe0, 0xd9, 0x18, 0x14, 0xe3, 0xcc, 0x02, 0x0f, 0x49, 0xe5,
    0x30, 0x08, 0x3f, 0x3a, 0x19, 0x2c, 0x06, 0xc7, 0x28, 0x18, 0xff, 0x0a,
    0x3c, 0x19, 0x04, 0xc3, 0x06, 0x24, 0xdd, 0x2e, 0xec, 0xb9, 0x01, 0xdb,
    0xf0, 0x03, 0x03, 0x07, 0x00, 0xea, 0x1e, 0xd5, 0x01, 0x1f, 0x08, 0x19,
    0x0c, 0x1f, 0x11, 0x9d, 0xf9, 0x14, 0x32, 0x1d, 0xd5, 0xd0, 0xd0, 0x58,
    0xe9, 0xe6, 0xce, 0xd6, 0x17, 0xaf, 0xed, 0xae, 0x19, 0x34, 0xf1, 0xe2,
    0x02, 0x4f, 0x22, 0x95, 0x0d, 0x04, 0x2f, 0x3f, 0xe5, 0x89, 0xf9, 0x28,
    0xee, 0x02, 0xd3, 0xae, 0x2d, 0xc2, 0xcf, 0x81, 0x1d, 0x14, 0xcb, 0xbb,
    0x17, 0x26, 0x35, 0x97, 0x0d, 0xd0, 0x45, 0x62, 0xaa, 0xf8, 0xff, 0xff,
    0x00, 0x00, 0x00, 0x09, 0x10, 0x00, 0x00, 0x00, 0x07, 0x00, 0x00, 0x00,
    0x1c, 0x00, 0x00, 0x00, 0x34, 0x00, 0x00, 0x00, 0x04, 0x00, 0x00, 0x00,
    0x08, 0x00, 0x00, 0x00, 0x03, 0x00, 0x00, 0x00, 0x03, 0x00, 0x00, 0x00,
    0x08, 0x00, 0x00, 0x00, 0x15, 0x00, 0x00, 0x00, 0x6d, 0x6f, 0x64, 0x65,
    0x6c, 0x2f, 0x63, 0x6f, 0x6e, 0x76, 0x32, 0x64, 0x5f, 0x32, 0x2f, 0x43,
    0x6f, 0x6e, 0x76, 0x32, 0x44, 0x00, 0x00, 0x00, 0x94, 0xf9, 0xff, 0xff,
    0x08, 0x00, 0x00, 0x00, 0x28, 0x00, 0x00, 0x00, 0x08, 0x00, 0x00, 0x00,
    0x60, 0xbb, 0xcc, 0x3b, 0x67, 0x1c, 0x8f, 0x3b, 0xe0, 0x09, 0x37, 0x3b,
    0xfe, 0xfd, 0xae, 0x3b, 0x2b, 0x5a, 0x9d, 0x3b, 0x15, 0xe5, 0xc3, 0x3b,
    0x7d, 0x67, 0x9f, 0x3b, 0x70, 0x82, 0x97, 0x3b, 0x08, 0x00, 0x00, 0x00,
    0x00, 0x00, 0x00, 0x00, 0x00, 0x00, 0x00, 0x00, 0x00, 0x00, 0x00, 0x00,
    0x00, 0x00, 0x00, 0x00, 0x00, 0x00, 0x00, 0x00, 0x00, 0x00, 0x00, 0x00,
    0x00, 0x00, 0x00, 0x00, 0x00, 0x00, 0x00, 0x00, 0x00, 0x00, 0x00, 0x00,
    0x00, 0x00, 0x00, 0x00, 0x00, 0x00, 0x00, 0x00, 0x00, 0x00, 0x00, 0x00,
    0x00, 0x00, 0x00, 0x00, 0x00, 0x00, 0x00, 0x00, 0x00, 0x00, 0x00, 0x00,
    0x00, 0x00, 0x00, 0x00, 0x00, 0x00, 0x00, 0x00, 0x86, 0xf9, 0xff, 0xff,
    0x04, 0x00, 0x00, 0x00, 0x20, 0x00, 0x00, 0x00, 0x22, 0x19, 0x00, 0x00,
    0x2f, 0x09, 0x00, 0x00, 0x8d, 0xfd, 0xff, 0xff, 0x40, 0x0a, 0x00, 0x00,
    0xa8, 0x23, 0x00, 0x00, 0x81, 0x0e, 0x00, 0x00, 0xd9, 0xf7, 0xff, 0xff,
    0x8e, 0x0f, 0x00, 0x00, 0x96, 0xf9, 0xff, 0xff, 0x00, 0x00, 0x00, 0x02,
    0x10, 0x00, 0x00, 0x00, 0x06, 0x00, 0x00, 0x00, 0x10, 0x00, 0x00, 0x00,
    0x80, 0x00, 0x00, 0x00, 0x01, 0x00, 0x00, 0x00, 0x08, 0x00, 0x00, 0x00,
    0x6f, 0x00, 0x00, 0x00, 0x6d, 0x6f, 0x64, 0x65, 0x6c, 0x2f, 0x63, 0x6f,
    0x6e, 0x76, 0x32, 0x64, 0x5f, 0x31, 0x2f, 0x42, 0x69, 0x61, 0x73, 0x41,
    0x64, 0x64, 0x3b, 0x6d, 0x6f, 0x64, 0x65, 0x6c, 0x2f, 0x63, 0x6f, 0x6e,
    0x76, 0x32, 0x64, 0x2f, 0x43, 0x6f, 0x6e, 0x76, 0x32, 0x44, 0x3b, 0x6d,
    0x6f, 0x64, 0x65, 0x6c, 0x2f, 0x63, 0x6f, 0x6e, 0x76, 0x32, 0x64, 0x5f,
    0x31, 0x2f, 0x43, 0x6f, 0x6e, 0x76, 0x32, 0x44, 0x3b, 0x6d, 0x6f, 0x64,
    0x65, 0x6c, 0x2f, 0x63, 0x6f, 0x6e, 0x76, 0x32, 0x64, 0x5f, 0x31, 0x2f,
    0x42, 0x69, 0x61, 0x73, 0x41, 0x64, 0x64, 0x2f, 0x52, 0x65, 0x61, 0x64,
    0x56, 0x61, 0x72, 0x69, 0x61, 0x62, 0x6c, 0x65, 0x4f, 0x70, 0x2f, 0x72,
    0x65, 0x73, 0x6f, 0x75, 0x72, 0x63, 0x65, 0x00, 0xcc, 0xfa, 0xff, 0xff,
    0x08, 0x00, 0x00, 0x00, 0x28, 0x00, 0x00, 0x00, 0x08, 0x00, 0x00, 0x00,
    0xfb, 0xc8, 0x16, 0x38, 0xb0, 0xfe, 0x28, 0x38, 0xa5, 0xb9, 0x41, 0x38,
    0xe5, 0xa8, 0x07, 0x38, 0x87, 0x2f, 0xbe, 0x37, 0x85, 0xd2, 0x30, 0x38,
    0xaa, 0xa2, 0x20, 0x38, 0x98, 0x1d, 0x22, 0x38, 0x08, 0x00, 0x00, 0x00,
    0x00, 0x00, 0x00, 0x00, 0x00, 0x00, 0x00, 0x00, 0x00, 0x00, 0x00, 0x00,
    0x00, 0x00, 0x00, 0x00, 0x00, 0x00, 0x00, 0x00, 0x00, 0x00, 0x00, 0x00,
    0x00, 0x00, 0x00, 0x00, 0x00, 0x00, 0x00, 0x00, 0x00, 0x00, 0x00, 0x00,
    0x00, 0x00, 0x00, 0x00, 0x00, 0x00, 0x00, 0x00, 0x00, 0x00, 0x00, 0x00,
    0x00, 0x00, 0x00, 0x00, 0x00, 0x00, 0x00, 0x00, 0x00, 0x00, 0x00, 0x00,
    0x00, 0x00, 0x00, 0x00, 0xba, 0xfa, 0xff, 0xff, 0x04, 0x00, 0x00, 0x00,
    0x40, 0x02, 0x00, 0x00, 0xf5, 0x3d, 0xf0, 0xfe, 0xd7, 0xd4, 0xf7, 0xf5,
    0x07, 0x24, 0xee, 0xec, 0xe8, 0xe3, 0x24, 0xee, 0xd8, 0x32, 0xf3, 0x13,
    0x1c, 0xdb, 0x1a, 0x3d, 0x03, 0x27, 0xe0, 0xce, 0xd0, 0xb4, 0x08, 0xe4,
    0xe4, 0x25, 0xce, 0x07, 0xcf, 0xe3, 0x15, 0xd3, 0xd3, 0x23, 0xe5, 0x0d,
    0x15, 0x05, 0x19, 0x0c, 0xfe, 0x10, 0xd8, 0xe9, 0xca, 0xcc, 0xf1, 0x81,
    0xe6, 0x23, 0x89, 0x06, 0xb9, 0x18, 0x29, 0x85, 0xc5, 0x1f, 0xd6, 0x09,
    0xfc, 0x25, 0x25, 0xd7, 0x21, 0x2e, 0xc5, 0x1c, 0xcd, 0xe2, 0x1f, 0xd5,
    0xd7, 0x18, 0xf6, 0x1a, 0x0e, 0xf8, 0x2f, 0xfc, 0xa0, 0xf6, 0x15, 0x12,
    0x4e, 0xf0, 0x2e, 0x36, 0xc7, 0x26, 0xcc, 0x34, 0xfa, 0xf5, 0x22, 0xe2,
    0x81, 0x1d, 0xf5, 0x14, 0x1c, 0x16, 0x41, 0x19, 0xb6, 0xe1, 0xf6, 0xe3,
    0x1c, 0xfe, 0x34, 0x29, 0xc0, 0x29, 0x00, 0x10, 0x28, 0x15, 0x2a, 0x12,
    0xb1, 0xd9, 0x18, 0xeb, 0x3a, 0x1e, 0x2e, 0x1b, 0x0a, 0xb8, 0xe8, 0xe2,
    0xf5, 0x2b, 0xf4, 0x1b, 0xcb, 0x02, 0xfc, 0xff, 0x2e, 0xfb, 0x0c, 0x12,
    0xfe, 0xe6, 0x0f, 0xb8, 0x2d, 0x1b, 0xec, 0x2e, 0x13, 0xea, 0xf9, 0xc3,
    0xec, 0x1a, 0xc7, 0x0c, 0x2f, 0x01, 0x98, 0xeb, 0xae, 0x53, 0x13, 0xad,
    0x2e, 0x03, 0x87, 0xf6, 0x81, 0x30, 0xcd, 0xa7, 0x15, 0x13, 0xa3, 0x0d,
    0xcd, 0x0f, 0xeb, 0xcd, 0x1f, 0x1e, 0xe3, 0x19, 0xe5, 0x0c, 0xff, 0xf2,
    0xf9, 0x2f, 0xd7, 0x38, 0x09, 0xef, 0xed, 0x01, 0xff, 0x22, 0x17, 0x0b,
    0x29, 0x02, 0x03, 0x29, 0xc6, 0x2c, 0x34, 0xdf, 0x11, 0x14, 0x1d, 0x09,
    0xf8, 0x3a, 0x3d, 0x13, 0x24, 0x20, 0x2a, 0xfe, 0xbe, 0x2a, 0x36, 0x42,
    0x2f, 0xec, 0x2b, 0x25, 0xb4, 0xe8, 0x1e, 0xe7, 0x27, 0xfd, 0x85, 0x06,
    0xb3, 0x04, 0x4c, 0x0d, 0x2c, 0xc6, 0xc2, 0x46, 0xac, 0xeb, 0x22, 0xf0,
    0x40, 0xcf, 0xe2, 0x65, 0x3f, 0xc5, 0xc5, 0x0f, 0xe5, 0x11, 0x99, 0xeb,
    0x27, 0xb3, 0xce, 0xdb, 0xf5, 0x22, 0x81, 0x16, 0x2d, 0xab, 0xbe, 0xa3,
    0xbd, 0x34, 0x98, 0x0b, 0x28, 0x1b, 0x5b, 0x07, 0x15, 0x3e, 0xb4, 0x47,
    0x47, 0x1e, 0x1a, 0xdd, 0xdb, 0x2b, 0x06, 0xd8, 0x1f, 0x49, 0xdb, 0x53,
    0xee, 0x0d, 0x01, 0x10, 0x35, 0x19, 0xb6, 0xed, 0xad, 0xee, 0xbf, 0xd7,
    0x02, 0x36, 0xbd, 0x24, 0x94, 0x81, 0xcf, 0x97, 0xcd, 0x43, 0xea, 0x47,
    0x2a, 0xa1, 0x01, 0x17, 0x08, 0x14, 0xbc, 0x14, 0xb7, 0xc1, 0xba, 0x8b,
    0xef, 0x30, 0xc7, 0x12, 0xcb, 0x88, 0xee, 0xa5, 0xc2, 0x0a, 0xc6, 0xde,
    0xec, 0xf4, 0x09, 0xe3, 0x07, 0xe6, 0xfc, 0xf6, 0xea, 0x36, 0x0f, 0xed,
    0x16, 0xf7, 0xe2, 0xd4, 0xe6, 0x08, 0xa5, 0xeb, 0x3a, 0x0a, 0xc6, 0xda,
    0xcb, 0x0c, 0xab, 0xeb, 0x0c, 0xf4, 0xde, 0x09, 0xec, 0x02, 0xce, 0xff,
    0x3a, 0xfb, 0xca, 0x03, 0xc2, 0x16, 0x81, 0xea, 0x3c, 0x17, 0xdd, 0xf8,
    0xc5, 0x0f, 0x96, 0xef, 0x37, 0xe9, 0xc3, 0x05, 0xd4, 0x12, 0xb0, 0x00,
    0x3e, 0x15, 0x9a, 0xe2, 0xb7, 0x2b, 0xaa, 0x9d, 0x2e, 0x2e, 0xe1, 0x22,
    0xcb, 0xff, 0xc7, 0xbe, 0xe3, 0x16, 0xd2, 0x11, 0x0b, 0x34, 0x30, 0x04,
    0x13, 0xe0, 0x9e, 0xcb, 0xa1, 0x52, 0xe2, 0xef, 0x38, 0xf9, 0x81, 0xdb,
    0x9d, 0x3d, 0xe3, 0xc4, 0x17, 0x10, 0xb9, 0x0a, 0xec, 0x30, 0x02, 0x08,
    0x29, 0x18, 0xbf, 0x3f, 0xf1, 0xed, 0xb3, 0xd5, 0x0b, 0x1d, 0xd1, 0x32,
    0x2c, 0xe8, 0xf1, 0x1b, 0x07, 0x1c, 0x09, 0x32, 0x0b, 0xf6, 0xf8, 0x05,
    0xca, 0x26, 0x1a, 0x2f, 0x33, 0x9c, 0xb3, 0x29, 0xc6, 0x12, 0x1c, 0xd4,
    0x33, 0x9c, 0xd0, 0x4b, 0xfe, 0x08, 0xc4, 0x4d, 0xd8, 0x33, 0x17, 0xc3,
    0xdb, 0xeb, 0x10, 0x04, 0x2a, 0xec, 0xd2, 0x08, 0xdb, 0x08, 0x52, 0xc7,
    0x59, 0xb7, 0xd8, 0x43, 0x09, 0x1c, 0xac, 0x4f, 0x9b, 0x53, 0x73, 0xa4,
    0x01, 0xe1, 0xde, 0x42, 0xbb, 0x1e, 0x0b, 0xc7, 0xe6, 0xe3, 0x36, 0x03,
    0x0f, 0xdc, 0xd8, 0x02, 0xf1, 0x3f, 0x00, 0x0e, 0xab, 0x27, 0x5f, 0x81,
    0x24, 0x1b, 0xba, 0x23, 0x89, 0x48, 0x41, 0x85, 0x1f, 0x03, 0xc9, 0x11,
    0xad, 0x2e, 0x0c, 0xd2, 0xea, 0xfc, 0xff, 0xff, 0x00, 0x00, 0x00, 0x09,
    0x10, 0x00, 0x00, 0x00, 0x05, 0x00, 0x00, 0x00, 0x1c, 0x00, 0x00, 0x00,
    0x34, 0x00, 0x00, 0x00, 0x04, 0x00, 0x00, 0x00, 0x08, 0x00, 0x00, 0x00,
    0x03, 0x00, 0x00, 0x00, 0x03, 0x00, 0x00, 0x00, 0x08, 0x00, 0x00, 0x00,
    0x15, 0x00, 0x00, 0x00, 0x6d, 0x6f, 0x64, 0x65, 0x6c, 0x2f, 0x63, 0x6f,
    0x6e, 0x76, 0x32, 0x64, 0x5f, 0x31, 0x2f, 0x43, 0x6f, 0x6e, 0x76, 0x32,
    0x44, 0x00, 0x00, 0x00, 0xd4, 0xfd, 0xff, 0xff, 0x08, 0x00, 0x00, 0x00,
    0x28, 0x00, 0x00, 0x00, 0x08, 0x00, 0x00, 0x00, 0xe9, 0x69, 0xbb, 0x3b,
    0x0a, 0x0c, 0xd2, 0x3b, 0xe9, 0xc8, 0xf0, 0x3b, 0x39, 0x9d, 0xa8, 0x3b,
    0xae, 0x62, 0x6c, 0x3b, 0xa4, 0xc6, 0xdb, 0x3b, 0x29, 0xa8, 0xc7, 0x3b,
    0x24, 0x7f, 0xc9, 0x3b, 0x08, 0x00, 0x00, 0x00, 0x00, 0x00, 0x00, 0x00,
    0x00, 0x00, 0x00, 0x00, 0x00, 0x00, 0x00, 0x00, 0x00, 0x00, 0x00, 0x00,
    0x00, 0x00, 0x00, 0x00, 0x00, 0x00, 0x00, 0x00, 0x00, 0x00, 0x00, 0x00,
    0x00, 0x00, 0x00, 0x00, 0x00, 0x00, 0x00, 0x00, 0x00, 0x00, 0x00, 0x00,
    0x00, 0x00, 0x00, 0x00, 0x00, 0x00, 0x00, 0x00, 0x00, 0x00, 0x00, 0x00,
    0x00, 0x00, 0x00, 0x00, 0x00, 0x00, 0x00, 0x00, 0x00, 0x00, 0x00, 0x00,
    0x00, 0x00, 0x00, 0x00, 0xc6, 0xfd, 0xff, 0xff, 0x04, 0x00, 0x00, 0x00,
    0x20, 0x00, 0x00, 0x00, 0xb6, 0x19, 0x00, 0x00, 0xc0, 0x1f, 0x00, 0x00,
    0xeb, 0x1c, 0x00, 0x00, 0x71, 0x11, 0x00, 0x00, 0xf5, 0x26, 0x00, 0x00,
    0x2a, 0x1f, 0x00, 0x00, 0x85, 0x03, 0x00, 0x00, 0xbf, 0x25, 0x00, 0x00,
    0xd6, 0xfd, 0xff, 0xff, 0x00, 0x00, 0x00, 0x02, 0x10, 0x00, 0x00, 0x00,
    0x04, 0x00, 0x00, 0x00, 0x10, 0x00, 0x00, 0x00, 0x68, 0x00, 0x00, 0x00,
    0x01, 0x00, 0x00, 0x00, 0x08, 0x00, 0x00, 0x00, 0x55, 0x00, 0x00, 0x00,
    0x6d, 0x6f, 0x64, 0x65, 0x6c, 0x2f, 0x63, 0x6f, 0x6e, 0x76, 0x32, 0x64,
    0x2f, 0x42, 0x69, 0x61, 0x73, 0x41, 0x64, 0x64, 0x3b, 0x6d, 0x6f, 0x64,
    0x65, 0x6c, 0x2f, 0x63, 0x6f, 0x6e, 0x76, 0x32, 0x64, 0x2f, 0x43, 0x6f,
    0x6e, 0x76, 0x32, 0x44, 0x3b, 0x6d, 0x6f, 0x64, 0x65, 0x6c, 0x2f, 0x63,
    0x6f, 0x6e, 0x76, 0x32, 0x64, 0x2f, 0x42, 0x69, 0x61, 0x73, 0x41, 0x64,
    0x64, 0x2f, 0x52, 0x65, 0x61, 0x64, 0x56, 0x61, 0x72, 0x69, 0x61, 0x62,
    0x6c, 0x65, 0x4f, 0x70, 0x2f, 0x72, 0x65, 0x73, 0x6f, 0x75, 0x72, 0x63,
    0x65, 0x00, 0x00, 0x00, 0xf4, 0xfe, 0xff, 0xff, 0x08, 0x00, 0x00, 0x00,
    0x28, 0x00, 0x00, 0x00, 0x08, 0x00, 0x00, 0x00, 0xf1, 0x17, 0xa8, 0x37,
    0x63, 0x5f, 0x76, 0x37, 0xde, 0xdb, 0x8a, 0x37, 0xac, 0x74, 0x51, 0x37,
    0xe7, 0xcb, 0x84, 0x37, 0x0b, 0xc6, 0x51, 0x37, 0xa8, 0xe8, 0xa5, 0x37,
    0x20, 0xe6, 0x86, 0x37, 0x08, 0x00, 0x00, 0x00, 0x00, 0x00, 0x00, 0x00,
    0x00, 0x00, 0x00, 0x00, 0x00, 0x00, 0x00, 0x00, 0x00, 0x00, 0x00, 0x00,
    0x00, 0x00, 0x00, 0x00, 0x00, 0x00, 0x00, 0x00, 0x00, 0x00, 0x00, 0x00,
    0x00, 0x00, 0x00, 0x00, 0x00, 0x00, 0x00, 0x00, 0x00, 0x00, 0x00, 0x00,
    0x00, 0x00, 0x00, 0x00, 0x00, 0x00, 0x00, 0x00, 0x00, 0x00, 0x00, 0x00,
    0x00, 0x00, 0x00, 0x00, 0x00, 0x00, 0x00, 0x00, 0x00, 0x00, 0x00, 0x00,
    0xe2, 0xfe, 0xff, 0xff, 0x04, 0x00, 0x00, 0x00, 0x48, 0x00, 0x00, 0x00,
    0xeb, 0x96, 0xc5, 0xeb, 0xf0, 0x38, 0x17, 0x54, 0x7f, 0xf8, 0x32, 0x14,
    0x58, 0x7f, 0x4a, 0xe1, 0x3e, 0xf0, 0x3c, 0x23, 0x70, 0xdd, 0xef, 0x28,
    0x81, 0xa9, 0xe3, 0xdb, 0x93, 0x1a, 0x6a, 0x21, 0x1c, 0x7f, 0xd1, 0xc4,
    0x3f, 0x44, 0x5c, 0x2e, 0xeb, 0x08, 0xc3, 0x81, 0xb3, 0x4f, 0xa1, 0x87,
    0x31, 0xad, 0xd6, 0x7f, 0x5d, 0x67, 0x5f, 0xeb, 0x81, 0x75, 0x24, 0x9c,
    0x28, 0xf6, 0xee, 0x41, 0x3c, 0x4a, 0x3c, 0x02, 0xdf, 0xb9, 0x81, 0x9c,
    0x1a, 0xff, 0xff, 0xff, 0x00, 0x00, 0x00, 0x09, 0x10, 0x00, 0x00, 0x00,
    0x03, 0x00, 0x00, 0x00, 0x1c, 0x00, 0x00, 0x00, 0x3c, 0x00, 0x00, 0x00,
    0x04, 0x00, 0x00, 0x00, 0x08, 0x00, 0x00, 0x00, 0x03, 0x00, 0x00, 0x00,
    0x03, 0x00, 0x00, 0x00, 0x01, 0x00, 0x00, 0x00, 0x13, 0x00, 0x00, 0x00,
    0x6d, 0x6f, 0x64, 0x65, 0x6c, 0x2f, 0x63, 0x6f, 0x6e, 0x76, 0x32, 0x64,
    0x2f, 0x43, 0x6f, 0x6e, 0x76, 0x32, 0x44, 0x00, 0x0c, 0x00, 0x0c, 0x00,
    0x00, 0x00, 0x00, 0x00, 0x04, 0x00, 0x08, 0x00, 0x0c, 0x00, 0x00, 0x00,
    0x08, 0x00, 0x00, 0x00, 0x28, 0x00, 0x00, 0x00, 0x08, 0x00, 0x00, 0x00,
    0xd8, 0x6f, 0xa7, 0x3b, 0x03, 0x69, 0x75, 0x3b, 0x02, 0x51, 0x8a, 0x3b,
    0x37, 0xa3, 0x50, 0x3b, 0x1b, 0x47, 0x84, 0x3b, 0x44, 0xf4, 0x50, 0x3b,
    0xbf, 0x42, 0xa5, 0x3b, 0x39, 0x5f, 0x86, 0x3b, 0x08, 0x00, 0x00, 0x00,
    0x00, 0x00, 0x00, 0x00, 0x00, 0x00, 0x00, 0x00, 0x00, 0x00, 0x00, 0x00,
    0x00, 0x00, 0x00, 0x00, 0x00, 0x00, 0x00, 0x00, 0x00, 0x00, 0x00, 0x00,
    0x00, 0x00, 0x00, 0x00, 0x00, 0x00, 0x00, 0x00, 0x00, 0x00, 0x00, 0x00,
    0x00, 0x00, 0x00, 0x00, 0x00, 0x00, 0x00, 0x00, 0x00, 0x00, 0x00, 0x00,
    0x00, 0x00, 0x00, 0x00, 0x00, 0x00, 0x00, 0x00, 0x00, 0x00, 0x00, 0x00,
    0x00, 0x00, 0x00, 0x00, 0x00, 0x00, 0x00, 0x00, 0x00, 0x00, 0x06, 0x00,
    0x08, 0x00, 0x04, 0x00, 0x06, 0x00, 0x00, 0x00, 0x04, 0x00, 0x00, 0x00,
    0x08, 0x00, 0x00, 0x00, 0xff, 0xff, 0xff, 0xff, 0x80, 0x00, 0x00, 0x00,
    0x00, 0x00, 0x0e, 0x00, 0x18, 0x00, 0x08, 0x00, 0x07, 0x00, 0x0c, 0x00,
    0x10, 0x00, 0x14, 0x00, 0x0e, 0x00, 0x00, 0x00, 0x00, 0x00, 0x00, 0x02,
    0x10, 0x00, 0x00, 0x00, 0x02, 0x00, 0x00, 0x00, 0x10, 0x00, 0x00, 0x00,
    0x24, 0x00, 0x00, 0x00, 0x01, 0x00, 0x00, 0x00, 0x02, 0x00, 0x00, 0x00,
    0x13, 0x00, 0x00, 0x00, 0x6d, 0x6f, 0x64, 0x65, 0x6c, 0x2f, 0x66, 0x6c,
    0x61, 0x74, 0x74, 0x65, 0x6e, 0x2f, 0x43, 0x6f, 0x6e, 0x73, 0x74, 0x00,
    0x98, 0xff, 0xff, 0xff, 0x14, 0x00, 0x18, 0x00, 0x04, 0x00, 0x00, 0x00,
    0x08, 0x00, 0x0c, 0x00, 0x10, 0x00, 0x00, 0x00, 0x00, 0x00, 0x14, 0x00,
    0x14, 0x00, 0x00, 0x00, 0x14, 0x00, 0x00, 0x00, 0x01, 0x00, 0x00, 0x00,
    0x34, 0x00, 0x00, 0x00, 0x3c, 0x00, 0x00, 0x00, 0x18, 0x00, 0x00, 0x00,
    0x04, 0x00, 0x00, 0x00, 0x01, 0x00, 0x00, 0x00, 0x1c, 0x00, 0x00, 0x00,
    0x1c, 0x00, 0x00, 0x00, 0x01, 0x00, 0x00, 0x00, 0x04, 0x00, 0x00, 0x00,
    0xff, 0xff, 0xff, 0xff, 0x1c, 0x00, 0x00, 0x00, 0x1c, 0x00, 0x00, 0x00,
    0x01, 0x00, 0x00, 0x00, 0x07, 0x00, 0x00, 0x00, 0x69, 0x6e, 0x70, 0x75,
    0x74, 0x5f, 0x31, 0x00, 0xfc, 0xff, 0xff, 0xff, 0x04, 0x00, 0x04, 0x00,
    0x04, 0x00, 0x00, 0x00};
const int MNIST_tflite_len = 9568;